{
  "version": "1.0",
  "truncation": null,
  "padding": null,
  "added_tokens": [
    {
      "id": 0,
      "content": "[PAD]",
      "single_word": false,
      "lstrip": false,
      "rstrip": false,
      "normalized": false,
      "special": true
    },
    {
      "id": 1,
      "content": "[UNK]",
      "single_word": false,
      "lstrip": false,
      "rstrip": false,
      "normalized": false,
      "special": true
    },
    {
      "id": 2,
      "content": "[CLS]",
      "single_word": false,
      "lstrip": false,
      "rstrip": false,
      "normalized": false,
      "special": true
    },
    {
      "id": 3,
      "content": "[SEP]",
      "single_word": false,
      "lstrip": false,
      "rstrip": false,
      "normalized": false,
      "special": true
    },
    {
      "id": 4,
      "content": "[MASK]",
      "single_word": false,
      "lstrip": false,
      "rstrip": false,
      "normalized": false,
      "special": true
    }
  ],
  "normalizer": {
    "type": "BertNormalizer",
    "clean_text": true,
    "handle_chinese_chars": true,
    "strip_accents": null,
    "lowercase": false
  },
  "pre_tokenizer": {
    "type": "BertPreTokenizer"
  },
  "post_processor": {
    "type": "TemplateProcessing",
    "single": [
      {
        "SpecialToken": {
          "id": "[CLS]",
          "type_id": 0
        }
      },
      {
        "Sequence": {
          "id": "A",
          "type_id": 0
        }
      },
      {
        "SpecialToken": {
          "id": "[SEP]",
          "type_id": 0
        }
      }
    ],
    "pair": [
      {
        "SpecialToken": {
          "id": "[CLS]",
          "type_id": 0
        }
      },
      {
        "Sequence": {
          "id": "A",
          "type_id": 0
        }
      },
      {
        "SpecialToken": {
          "id": "[SEP]",
          "type_id": 0
        }
      },
      {
        "Sequence": {
          "id": "B",
          "type_id": 1
        }
      },
      {
        "SpecialToken": {
          "id": "[SEP]",
          "type_id": 1
        }
      }
    ],
    "special_tokens": {
      "[CLS]": {
        "id": "[CLS]",
        "ids": [
          2
        ],
        "tokens": [
          "[CLS]"
        ]
      },
      "[SEP]": {
        "id": "[SEP]",
        "ids": [
          3
        ],
        "tokens": [
          "[SEP]"
        ]
      }
    }
  },
  "decoder": {
    "type": "WordPiece",
    "prefix": "##",
    "cleanup": true
  },
  "model": {
    "type": "WordPiece",
    "unk_token": "[UNK]",
    "continuing_subword_prefix": "##",
    "max_input_chars_per_word": 100,
    "vocab": {
      "[PAD]": 0,
      "[UNK]": 1,
      "[CLS]": 2,
      "[SEP]": 3,
      "[MASK]": 4,
      "!": 5,
      "'": 6,
      ",": 7,
      "-": 8,
      ".": 9,
      "/": 10,
      "0": 11,
      "1": 12,
      "2": 13,
      "3": 14,
      "4": 15,
      "5": 16,
      "6": 17,
      "7": 18,
      "8": 19,
      "9": 20,
      ":": 21,
      "?": 22,
      "A": 23,
      "B": 24,
      "C": 25,
      "D": 26,
      "F": 27,
      "G": 28,
      "H": 29,
      "J": 30,
      "K": 31,
      "L": 32,
      "N": 33,
      "O": 34,
      "P": 35,
      "S": 36,
      "T": 37,
      "U": 38,
      "Z": 39,
      "a": 40,
      "b": 41,
      "c": 42,
      "d": 43,
      "e": 44,
      "f": 45,
      "g": 46,
      "h": 47,
      "i": 48,
      "j": 49,
      "k": 50,
      "l": 51,
      "m": 52,
      "n": 53,
      "o": 54,
      "p": 55,
      "r": 56,
      "s": 57,
      "t": 58,
      "u": 59,
      "v": 60,
      "w": 61,
      "x": 62,
      "y": 63,
      "z": 64,
      "##l": 65,
      "##t": 66,
      "##n": 67,
      "##e": 68,
      "##3": 69,
      "##i": 70,
      "##D": 71,
      "##7": 72,
      "##k": 73,
      "##r": 74,
      "##s": 75,
      "##m": 76,
      "##a": 77,
      "##h": 78,
      "##c": 79,
      "##o": 80,
      "##u": 81,
      "##f": 82,
      "##d": 83,
      "##b": 84,
      "##S": 85,
      "##j": 86,
      "##y": 87,
      "##z": 88,
      "##9": 89,
      "##8": 90,
      "##g": 91,
      "##w": 92,
      "##T": 93,
      "##2": 94,
      "##6": 95,
      "##4": 96,
      "##p": 97,
      "##x": 98,
      "##0": 99,
      "##5": 100,
      "##ch": 101,
      "##an": 102,
      "##la": 103,
      "##na": 104,
      "wa": 105,
      "##li": 106,
      "##ha": 107,
      "##ad": 108,
      "ma": 109,
      "##al": 110,
      "##ay": 111,
      "ch": 112,
      "##in": 113,
      "##at": 114,
      "##ou": 115,
      "had": 116,
      "##ra": 117,
      "##chi": 118,
      "##di": 119,
      "##kh": 120,
      "##ti": 121,
      "##ta": 122,
      "##er": 123,
      "##ia": 124,
      "kan": 125,
      "##ma": 126,
      "##3a": 127,
      "##ba": 128,
      "kh": 129,
      "##en": 130,
      "wach": 131,
      "##da": 132,
      "##ss": 133,
      "##el": 134,
      "kay": 135,
      "dy": 136,
      "chi": 137,
      "kat": 138,
      "##ah": 139,
      "da": 140,
      "##ni": 141,
      "##ach": 142,
      "##ir": 143,
      "##kin": 144,
      "gha": 145,
      "##ko": 146,
      "hadchi": 147,
      "dyal": 148,
      "gh": 149,
      "mn": 150,
      "##ik": 151,
      "##af": 152,
      "ach": 153,
      "##lakin": 154,
      "walakin": 155,
      "##gh": 156,
      "##ri": 157,
      "3n": 158,
      "3la": 159,
      "lli": 160,
      "##ek": 161,
      "##om": 162,
      "##9a": 163,
      "mak": 164,
      "fl": 165,
      "rah": 166,
      "##re": 167,
      "##dir": 168,
      "3li": 169,
      "ana": 170,
      "##nna": 171,
      "##ja": 172,
      "##wa": 173,
      "ghan": 174,
      "m3a": 175,
      "tl": 176,
      "##7a": 177,
      "##kon": 178,
      "##hd": 179,
      "##yan": 180,
      "lm": 181,
      "mo": 182,
      "##ak": 183,
      "##im": 184,
      "##dd": 185,
      "##ya": 186,
      "daba": 187,
      "##ye": 188,
      "##it": 189,
      "##7al": 190,
      "##zz": 191,
      "##zyan": 192,
      "tan": 193,
      "##9d": 194,
      "mzyan": 195,
      "##mk": 196,
      "##alli": 197,
      "3nd": 198,
      "##lo": 199,
      "##7e": 200,
      "##kha": 201,
      "ah": 202,
      "ss": 203,
      "##ro": 204,
      "##rf": 205,
      "##sa": 206,
      "##hom": 207,
      "##ww": 208,
      "ma3": 209,
      "ala": 210,
      "lia": 211,
      "##ef": 212,
      "##ol": 213,
      "##Ta": 214,
      "bzz": 215,
      "imk": 216,
      "##bi": 217,
      "##id": 218,
      "##ran": 219,
      "##TT": 220,
      "wahd": 221,
      "bzzaf": 222,
      "anna": 223,
      "tta": 224,
      "##lla": 225,
      "khss": 226,
      "bach": 227,
      "##ala": 228,
      "##aja": 229,
      "##ok": 230,
      "##oa": 231,
      "kn": 232,
      "lb": 233,
      "nt": 234,
      "##ed": 235,
      "##9t": 236,
      "##wia": 237,
      "##khd": 238,
      "dyalk": 239,
      "haja": 240,
      "##il": 241,
      "ghay": 242,
      "lik": 243,
      "##em": 244,
      "##si": 245,
      "##ali": 246,
      "wakha": 247,
      "chwia": 248,
      "##yeh": 249,
      "fi": 250,
      "imken": 251,
      "bl": 252,
      "nta": 253,
      "tay": 254,
      "##tch": 255,
      "##iti": 256,
      "##a3": 257,
      "##balli": 258,
      "##Sa": 259,
      "ki": 260,
      "##e7": 261,
      "##rj": 262,
      "##or": 263,
      "##99": 264,
      "##chk": 265,
      "##enn": 266,
      "dak": 267,
      "makan": 268,
      "ba": 269,
      "bgh": 270,
      "hir": 271,
      "li": 272,
      "m3": 273,
      "##le": 274,
      "##r7": 275,
      "##rra": 276,
      "##mou": 277,
      "##oj": 278,
      "mat": 279,
      "kant": 280,
      "3ndi": 281,
      "knt": 282,
      "fach": 283,
      "lw": 284,
      "##lli": 285,
      "##eb": 286,
      "##Denn": 287,
      "##rin": 288,
      "##him": 289,
      "##ban": 290,
      "##cha": 291,
      "##chou": 292,
      "##3aw": 293,
      "makay": 294,
      "hia": 295,
      "jj": 296,
      "kha": 297,
      "##l3": 298,
      "##no": 299,
      "##ib": 300,
      "##ka": 301,
      "##st": 302,
      "##oww": 303,
      "##dda": 304,
      "machi": 305,
      "ghat": 306,
      "lmo": 307,
      "##chouf": 308,
      "8na": 309,
      "lla": 310,
      "##mchi": 311,
      "##hou": 312,
      "##aya": 313,
      "chef": 314,
      "kayn": 315,
      "dyali": 316,
      "3lach": 317,
      "##9der": 318,
      "3ndk": 319,
      "##ballia": 320,
      "bghiti": 321,
      "3a": 322,
      "b7al": 323,
      "kol": 324,
      "ndir": 325,
      "##har": 326,
      "##ada": 327,
      "hadi": 328,
      "mohim": 329,
      "##7ess": 330,
      "Ta": 331,
      "balli": 332,
      "hoa": 333,
      "l9": 334,
      "lma": 335,
      "mrra": 336,
      "tt": 337,
      "##lt": 338,
      "##ila": 339,
      "##ina": 340,
      "##kk": 341,
      "##rr": 342,
      "##on": 343,
      "##ft": 344,
      "##enna": 345,
      "3lia": 346,
      "ma3n": 347,
      "makayn": 348,
      "b3": 349,
      "ga3": 350,
      "l3": 351,
      "lk": 352,
      "la": 353,
      "lkh": 354,
      "mb": 355,
      "nn": 356,
      "na": 357,
      "nf": 358,
      "nna": 359,
      "olla": 360,
      "##e3": 361,
      "##ess": 362,
      "##e9t": 363,
      "##mt": 364,
      "##bb": 365,
      "##jb": 366,
      "##ani": 367,
      "wayeh": 368,
      "chok": 369,
      "##oun": 370,
      "m3ak": 371,
      "##9dr": 372,
      "##khdma": 373,
      "##chkil": 374,
      "dakchi": 375,
      "##houm": 376,
      "ballik": 377,
      "chokran": 378,
      "7it": 379,
      "an": 380,
      "aw": 381,
      "bi": 382,
      "dr": 383,
      "hi": 384,
      "joj": 385,
      "l7": 386,
      "lf": 387,
      "man": 388,
      "ra": 389,
      "t3": 390,
      "tb": 391,
      "zw": 392,
      "##ll": 393,
      "##edd": 394,
      "##mm": 395,
      "##oma": 396,
      "##fach": 397,
      "##yye": 398,
      "##gha": 399,
      "##gol": 400,
      "may": 401,
      "chno": 402,
      "khra": 403,
      "##ell": 404,
      "kifach": 405,
      "##kker": 406,
      "as": 407,
      "ayeh": 408,
      "ewa": 409,
      "kt": 410,
      "l7al": 411,
      "nj": 412,
      "n9": 413,
      "nmchi": 414,
      "sm": 415,
      "ti": 416,
      "ta": 417,
      "##lti": 418,
      "##sm": 419,
      "##am": 420,
      "##ow": 421,
      "##Sed": 422,
      "##yya": 423,
      "##9i": 424,
      "##8D": 425,
      "##lah": 426,
      "##add": 427,
      "##oul": 428,
      "##our": 429,
      "##khir": 430,
      "##TTel": 431,
      "khssni": 432,
      "ghaykon": 433,
      "bS": 434,
      "bla": 435,
      "hak": 436,
      "id": 437,
      "ll": 438,
      "lkhdma": 439,
      "tah": 440,
      "##tta": 441,
      "##3o": 442,
      "##7d": 443,
      "##rb": 444,
      "##sta": 445,
      "##ar": 446,
      "##hem": 447,
      "##of": 448,
      "##o9": 449,
      "##yy": 450,
      "##ana": 451,
      "##lat": 452,
      "hada": 453,
      "kanDenn": 454,
      "##kom": 455,
      "##9aw": 456,
      "##ref": 457,
      "3liha": 458,
      "mzyana": 459,
      "tayballia": 460,
      "b3d": 461,
      "3ad": 462,
      "3af": 463,
      "SS": 464,
      "di": 465,
      "dda": 466,
      "fin": 467,
      "knna": 468,
      "mom": 469,
      "ola": 470,
      "tdir": 471,
      "##lou": 472,
      "##3l": 473,
      "##menna": 474,
      "##ara": 475,
      "##ho": 476,
      "##bda": 477,
      "##yin": 478,
      "##wb": 479,
      "##chof": 480,
      "##lay": 481,
      "##out": 482,
      "##erra": 483,
      "khdda": 484,
      "kay3": 485,
      "kayna": 486,
      "kat3": 487,
      "kat9": 488,
      "##ikra": 489,
      "##afi": 490,
      "flm": 491,
      "3lik": 492,
      "3lih": 493,
      "##hder": 494,
      "3ndna": 495,
      "annak": 496,
      "##rjo": 497,
      "##3awn": 498,
      "ghatkon": 499,
      "ma3ndi": 500,
      "ann": 501,
      "3afak": 502,
      "3rf": 503,
      "9b": 504,
      "TT": 505,
      "ddi": 506,
      "fra": 507,
      "fchk": 508,
      "fikra": 509,
      "glt": 510,
      "ikon": 511,
      "jay": 512,
      "ly": 513,
      "lay": 514,
      "lwa": 515,
      "mk": 516,
      "nkh": 517,
      "nchouf": 518,
      "ts": 519,
      "tkh": 520,
      "yal": 521,
      "zid": 522,
      "##te": 523,
      "##tha": 524,
      "##et": 525,
      "##ez": 526,
      "##is": 527,
      "##DD": 528,
      "##7at": 529,
      "##od": 530,
      "##och": 531,
      "##oni": 532,
      "##fa": 533,
      "##bba": 534,
      "##zal": 535,
      "##8a": 536,
      "##lif": 537,
      "mam": 538,
      "ch7al": 539,
      "##ma3": 540,
      "khlli": 541,
      "##ssi": 542,
      "ghadi": 543,
      "##7ab": 544,
      "##9dro": 545,
      "##7e99": 546,
      "imkn": 547,
      "annaho": 548,
      "khssna": 549,
      "##khdm": 550,
      "fiha": 551,
      "m3TTel": 552,
      "khay": 553,
      "ndiro": 554,
      "tilif": 555,
      "idan": 556,
      "tahoa": 557,
      "momkin": 558,
      "khddam": 559,
      "yallah": 560,
      "20": 561,
      "7s": 562,
      "S3": 563,
      "Safi": 564,
      "a7": 565,
      "bo": 566,
      "dd": 567,
      "i9dr": 568,
      "lj": 569,
      "l3a": 570,
      "lba": 571,
      "llo": 572,
      "mj": 573,
      "mcha": 574,
      "n3": 575,
      "ng": 576,
      "nhar": 577,
      "n9dro": 578,
      "on": 579,
      "rri": 580,
      "t7": 581,
      "tat": 582,
      "tkon": 583,
      "t9dr": 584,
      "##3an": 585,
      "##Da": 586,
      "##7i": 587,
      "##kla": 588,
      "##rou": 589,
      "##san": 590,
      "##sir": 591,
      "##mma": 592,
      "##oS": 593,
      "##ddi": 594,
      "##dek": 595,
      "##br": 596,
      "##bla": 597,
      "##b3an": 598,
      "##we9t": 599,
      "##2ila": 600,
      "##anat": 601,
      "##lia": 602,
      "##had": 603,
      "maf": 604,
      "mab": 605,
      "##ini": 606,
      "##kher": 607,
      "##tima3": 608,
      "##tar7": 609,
      "##err": 610,
      "kan7ess": 611,
      "##marin": 612,
      "##ba7": 613,
      "khess": 614,
      "kayballia": 615,
      "##ekk": 616,
      "m3ahom": 617,
      "##7ala": 618,
      "lmou": 619,
      "mochkil": 620,
      "##yam": 621,
      "##rfo": 622,
      "ma3rf": 623,
      "knti": 624,
      "blm": 625,
      "##Sawb": 626,
      "ba9i": 627,
      "##l3eb": 628,
      "kaynin": 629,
      "Tab3an": 630,
      "nnas": 631,
      "zwina": 632,
      "as2ila": 633,
      "ktr": 634,
      "nmchiw": 635,
      "bSS": 636,
      "dima": 637,
      "ddar": 638,
      "kat9Sed": 639,
      "ddisir": 640,
      "lwali": 641,
      "7na": 642,
      "bs": 643,
      "bz": 644,
      "blla": 645,
      "b7ala": 646,
      "do": 647,
      "dik": 648,
      "dok": 649,
      "fia": 650,
      "for": 651,
      "fhad": 652,
      "homa": 653,
      "it": 654,
      "ila": 655,
      "n7": 656,
      "ns": 657,
      "nach": 658,
      "oh": 659,
      "rak": 660,
      "tf": 661,
      "t9der": 662,
      "w9": 663,
      "zz": 664,
      "##ech": 665,
      "##3in": 666,
      "##ira": 667,
      "##Di": 668,
      "##kt": 669,
      "##rm": 670,
      "##ria": 671,
      "##rre": 672,
      "##snna": 673,
      "##mi": 674,
      "##oT": 675,
      "##ora": 676,
      "##obi": 677,
      "##f9": 678,
      "##fla": 679,
      "##fkker": 680,
      "##b9aw": 681,
      "##za": 682,
      "##zo": 683,
      "##zid": 684,
      "##9at": 685,
      "##9oul": 686,
      "wa7d": 687,
      "##lin": 688,
      "##lik": 689,
      "mazal": 690,
      "##ine": 691,
      "##inin": 692,
      "##khod": 693,
      "kan3": 694,
      "kano": 695,
      "khd": 696,
      "kat7ess": 697,
      "dyalo": 698,
      "##ri9": 699,
      "##ri9a": 700,
      "##waS": 701,
      "ghandir": 702,
      "tlwe9t": 703,
      "mora": 704,
      "##imana": 705,
      "ttamarin": 706,
      "lbla": 707,
      "tayban": 708,
      "##ballik": 709,
      "bas": 710,
      "##mou7at": 711,
      "matan": 712,
      "lw9t": 713,
      "lwe9t": 714,
      "##3awd": 715,
      "lmochkil": 716,
      "3arf": 717,
      "kolchi": 718,
      "##jbni": 719,
      "##yyeb": 720,
      "sm7": 721,
      "3rfti": 722,
      "frasi": 723,
      "fchkel": 724,
      "##bbaT": 725,
      "khllina": 726,
      "##7abni": 727,
      "tilifon": 728,
      "a7san": 729,
      "llow": 730,
      "##yamat": 731,
      "bSSe7": 732,
      "lwalida": 733,
      "bzaf": 734,
      "bllati": 735,
      "15": 736,
      "3ch": 737,
      "3ala": 738,
      "7da": 739,
      "Lah": 740,
      "SoS": 741,
      "aj": 742,
      "a8": 743,
      "bd": 744,
      "bra": 745,
      "bdi": 746,
      "bir": 747,
      "cha": 748,
      "fo": 749,
      "fkker": 750,
      "hani": 751,
      "ikh": 752,
      "ji": 753,
      "ja": 754,
      "kon": 755,
      "kam": 756,
      "l9a": 757,
      "lala": 758,
      "lgha": 759,
      "mt": 760,
      "mi": 761,
      "mra": 762,
      "mti": 763,
      "mtta": 764,
      "nd": 765,
      "nit": 766,
      "nsa": 767,
      "n9der": 768,
      "no9": 769,
      "nbda": 770,
      "nchof": 771,
      "rj": 772,
      "si": 773,
      "sa": 774,
      "sir": 775,
      "tn": 776,
      "tj": 777,
      "tch": 778,
      "thder": 779,
      "##lan": 780,
      "##to": 781,
      "##tek": 782,
      "##nch": 783,
      "##ezz": 784,
      "##3at": 785,
      "##iba": 786,
      "##D7": 787,
      "##7f": 788,
      "##7an": 789,
      "##kel": 790,
      "##kak": 791,
      "##rna": 792,
      "##sr": 793,
      "##sour": 794,
      "##mch": 795,
      "##mer": 796,
      "##htch": 797,
      "##fr": 798,
      "##fs": 799,
      "##fti": 800,
      "##dna": 801,
      "##bat": 802,
      "##bir": 803,
      "##yal": 804,
      "##9ch": 805,
      "##9al": 806,
      "##go": 807,
      "##gf": 808,
      "##goul": 809,
      "##way": 810,
      "##wanat": 811,
      "##2ekk": 812,
      "##por": 813,
      "##ansour": 814,
      "##laT": 815,
      "##nah": 816,
      "##liban": 817,
      "##adi": 818,
      "mag": 819,
      "mach": 820,
      "chfti": 821,
      "##ou3": 822,
      "##ouch": 823,
      "##oula": 824,
      "##raka": 825,
      "##chiTa": 826,
      "##dik": 827,
      "##dina": 828,
      "##tich": 829,
      "##elli": 830,
      "katgh": 831,
      "katsta": 832,
      "ghad": 833,
      "ghaliban": 834,
      "dyalha": 835,
      "mnn": 836,
      "##ika": 837,
      "##riTa": 838,
      "makre": 839,
      "##re7": 840,
      "##reb": 841,
      "tl9": 842,
      "tlfa": 843,
      "##aklo": 844,
      "##itch": 845,
      "tana": 846,
      "3ndha": 847,
      "##7em": 848,
      "##khariTa": 849,
      "ssmou7at": 850,
      "ssansour": 851,
      "lbal": 852,
      "##si9a": 853,
      "fihom": 854,
      "##99en": 855,
      "makanch": 856,
      "baraka": 857,
      "lina": 858,
      "##le3": 859,
      "##les": 860,
      "##mou3in": 861,
      "matat": 862,
      "lwad": 863,
      "##l3b": 864,
      "##kar": 865,
      "##owwel": 866,
      "##ddar": 867,
      "##ayawanat": 868,
      "makaynch": 869,
      "bikhir": 870,
      "##llef": 871,
      "##yyeT": 872,
      "maymk": 873,
      "##sm3": 874,
      "##8Der": 875,
      "hakkak": 876,
      "##outoun": 877,
      "##3awnek": 878,
      "ma3ndich": 879,
      "9bel": 880,
      "ikono": 881,
      "lay7f": 882,
      "nkhrjo": 883,
      "nchoufou": 884,
      "7sen": 885,
      "S3ib": 886,
      "bo7d": 887,
      "ljtima3": 888,
      "mjmou3in": 889,
      "lmoudir": 890,
      "ma3rftch": 891,
      "##Sawbo": 892,
      "doc": 893,
      "nachT": 894,
      "##kteb": 895,
      "##oTla": 896,
      "bdat": 897,
      "biro": 898,
      "lalarm": 899,
      "mttaf9": 900,
      "##2ekked": 901,
      "##port": 902,
      "makrehtch": 903,
      "lay7fdek": 904,
      "3z": 905,
      "3id": 906,
      "3oTla": 907,
      "7edd": 908,
      "7tta": 909,
      "9a": 910,
      "9Sed": 911,
      "DDa": 912,
      "Oh": 913,
      "SSa": 914,
      "Sara": 915,
      "SbbaT": 916,
      "S7abni": 917,
      "aww": 918,
      "alla": 919,
      "amou": 920,
      "bk": 921,
      "bda": 922,
      "bdd": 923,
      "bTa": 924,
      "brra": 925,
      "char": 926,
      "day": 927,
      "dgh": 928,
      "ddir": 929,
      "fn": 930,
      "fa": 931,
      "fh": 932,
      "fchi": 933,
      "gol": 934,
      "im": 935,
      "i9der": 936,
      "igol": 937,
      "kl": 938,
      "kim": 939,
      "kenna": 940,
      "kbir": 941,
      "lS": 942,
      "lah": 943,
      "lgh": 944,
      "lle": 945,
      "lyamat": 946,
      "lkhariTa": 947,
      "ms": 948,
      "mw": 949,
      "mchi": 950,
      "mkh": 951,
      "mr7": 952,
      "mlli": 953,
      "mila": 954,
      "no": 955,
      "nb": 956,
      "nS": 957,
      "nw": 958,
      "nch": 959,
      "nkon": 960,
      "nrj": 961,
      "naklo": 962,
      "ost": 963,
      "rra": 964,
      "skh": 965,
      "sala": 966,
      "sbr": 967,
      "sport": 968,
      "t9": 969,
      "tg": 970,
      "tnna": 971,
      "tchouf": 972,
      "tmma": 973,
      "wi": 974,
      "##lb": 975,
      "##l9": 976,
      "##lna": 977,
      "##l7a": 978,
      "##tt": 979,
      "##tour": 980,
      "##t3o": 981,
      "##3t": 982,
      "##39oul": 983,
      "##iz": 984,
      "##iw": 985,
      "##Der": 986,
      "##Dia": 987,
      "##Dim": 988,
      "##7m": 989,
      "##7o": 990,
      "##7ta": 991,
      "##7el": 992,
      "##rg": 993,
      "##rat": 994,
      "##r9a": 995,
      "##rdd": 996,
      "##sk": 997,
      "##me": 998,
      "##mr": 999,
      "##as": 1000,
      "##hs": 1001,
      "##hh": 1002,
      "##her": 1003,
      "##ob": 1004,
      "##owa": 1005,
      "##ur": 1006,
      "##fi": 1007,
      "##f7a": 1008,
      "##do": 1009,
      "##dou": 1010,
      "##der": 1011,
      "##Soni": 1012,
      "##jim": 1013,
      "##yli": 1014,
      "##8at": 1015,
      "##w9t": 1016,
      "##Tir": 1017,
      "##2i": 1018,
      "##ania": 1019,
      "##law": 1020,
      "wa3": 1021,
      "wayli": 1022,
      "##addir": 1023,
      "magh": 1024,
      "magha": 1025,
      "##alla": 1026,
      "hadik": 1027,
      "##dit": 1028,
      "##did": 1029,
      "##khla": 1030,
      "##khlli": 1031,
      "##khle3": 1032,
      "##tih": 1033,
      "##tija": 1034,
      "##tar": 1035,
      "kanchouf": 1036,
      "kanb9aw": 1037,
      "##3as": 1038,
      "##3a2": 1039,
      "##bar": 1040,
      "##bab": 1041,
      "khm": 1042,
      "##enti": 1043,
      "##da3": 1044,
      "##daf": 1045,
      "##daz": 1046,
      "##elle": 1047,
      "kayban": 1048,
      "kayballik": 1049,
      "kaySoni": 1050,
      "katm": 1051,
      "katDenn": 1052,
      "kat3awd": 1053,
      "daz": 1054,
      "ghir": 1055,
      "mnno": 1056,
      "##ikala": 1057,
      "##ghT": 1058,
      "##ekch": 1059,
      "##omobi": 1060,
      "##rej": 1061,
      "##reg": 1062,
      "##redd": 1063,
      "##reft": 1064,
      "3lihom": 1065,
      "##wa3": 1066,
      "ghanmchi": 1067,
      "tlkh": 1068,
      "##7aw": 1069,
      "##hdro": 1070,
      "lms": 1071,
      "lmrr": 1072,
      "lmerra": 1073,
      "mo7al": 1074,
      "##ddem": 1075,
      "##yasa": 1076,
      "tant": 1077,
      "tanDenn": 1078,
      "##7eTT": 1079,
      "ssi": 1080,
      "ssimana": 1081,
      "ssyasa": 1082,
      "##sa3": 1083,
      "##sali": 1084,
      "ma3mm": 1085,
      "##bib": 1086,
      "annaha": 1087,
      "khssek": 1088,
      "##alat": 1089,
      "##okkel": 1090,
      "ntsnna": 1091,
      "##khdda": 1092,
      "##sida": 1093,
      "##sift": 1094,
      "fi3l": 1095,
      "kidaz": 1096,
      "##e7t": 1097,
      "bghit": 1098,
      "lih": 1099,
      "m3aya": 1100,
      "##mout": 1101,
      "kantmenna": 1102,
      "jjay": 1103,
      "jjaya": 1104,
      "##owwez": 1105,
      "ghat3": 1106,
      "kollo": 1107,
      "##ada9": 1108,
      "Tari9a": 1109,
      "lmakla": 1110,
      "##rrek": 1111,
      "lkhrin": 1112,
      "mbrr": 1113,
      "mberr": 1114,
      "mbrre": 1115,
      "nnhar": 1116,
      "nn3as": 1117,
      "nas": 1118,
      "nakhod": 1119,
      "nfs": 1120,
      "awdi": 1121,
      "awlla": 1122,
      "drti": 1123,
      "drtha": 1124,
      "tb9a": 1125,
      "zwin": 1126,
      "##eddo": 1127,
      "##ellef": 1128,
      "kter": 1129,
      "njib": 1130,
      "##sme3": 1131,
      "##owat": 1132,
      "##8Dro": 1133,
      "hakka": 1134,
      "##o93": 1135,
      "SSo": 1136,
      "kay3ni": 1137,
      "flmdina": 1138,
      "annani": 1139,
      "annana": 1140,
      "9bl": 1141,
      "lyoma": 1142,
      "##teur": 1143,
      "mamzyan": 1144,
      "khayb": 1145,
      "khddamin": 1146,
      "lbar7": 1147,
      "ngadd": 1148,
      "rrijim": 1149,
      "t7t": 1150,
      "mafhem": 1151,
      "mabgh": 1152,
      "blm39oul": 1153,
      "forSa": 1154,
      "lblaSa": 1155,
      "a8daf": 1156,
      "bditi": 1157,
      "fost": 1158,
      "fkkerti": 1159,
      "kaml": 1160,
      "l9aDia": 1161,
      "lghalaT": 1162,
      "mt2ekked": 1163,
      "mita": 1164,
      "no9Ta": 1165,
      "nbdaw": 1166,
      "##wayj": 1167,
      "##adi2": 1168,
      "maglti": 1169,
      "katsta7e99": 1170,
      "ghadyin": 1171,
      "tl9na": 1172,
      "tlfaza": 1173,
      "maymknch": 1174,
      "doctour": 1175,
      "3ziz": 1176,
      "DDaghT": 1177,
      "amoulay": 1178,
      "bkri": 1179,
      "charika": 1180,
      "dghya": 1181,
      "fnfs": 1182,
      "fhmt": 1183,
      "gollia": 1184,
      "kimma": 1185,
      "lSf7a": 1186,
      "mr7ba": 1187,
      "nbdd": 1188,
      "salam": 1189,
      "sbrdi": 1190,
      "tnnas": 1191,
      "lmrrat": 1192,
      "fi3lan": 1193,
      "mbrre3": 1194,
      "12": 1195,
      "14": 1196,
      "2et": 1197,
      "3ay": 1198,
      "3Ta": 1199,
      "3rra": 1200,
      "3jb": 1201,
      "3jbni": 1202,
      "7m": 1203,
      "7a": 1204,
      "7li": 1205,
      "7TT": 1206,
      "7fla": 1207,
      "7ayawanat": 1208,
      "9di": 1209,
      "9der": 1210,
      "Hmm": 1211,
      "La": 1212,
      "Lay": 1213,
      "Pak": 1214,
      "Sg": 1215,
      "Sgh": 1216,
      "Se7": 1217,
      "Sout": 1218,
      "S7i": 1219,
      "Sba7": 1220,
      "Sda3": 1221,
      "T7": 1222,
      "Th": 1223,
      "Tan": 1224,
      "Trf": 1225,
      "TTa": 1226,
      "Tyya": 1227,
      "Tbla": 1228,
      "Tobi": 1229,
      "Tri9": 1230,
      "Tyyeb": 1231,
      "Tomobi": 1232,
      "Tbib": 1233,
      "Uh": 1234,
      "at": 1235,
      "am": 1236,
      "akhir": 1237,
      "assi": 1238,
      "a9al": 1239,
      "bt": 1240,
      "br": 1241,
      "bj": 1242,
      "bch": 1243,
      "bay": 1244,
      "bchi": 1245,
      "bss": 1246,
      "b9a": 1247,
      "biti": 1248,
      "bgha": 1249,
      "btta": 1250,
      "berra": 1251,
      "b9at": 1252,
      "boutoun": 1253,
      "dww": 1254,
      "d9i": 1255,
      "dhs": 1256,
      "dowwez": 1257,
      "fr": 1258,
      "fli": 1259,
      "fer": 1260,
      "fah": 1261,
      "fri": 1262,
      "f7a": 1263,
      "fid": 1264,
      "fr7": 1265,
      "fhem": 1266,
      "fo9": 1267,
      "fbla": 1268,
      "fddar": 1269,
      "f3a2": 1270,
      "gu": 1271,
      "gad": 1272,
      "glti": 1273,
      "gles": 1274,
      "hah": 1275,
      "howa": 1276,
      "hania": 1277,
      "iD": 1278,
      "is": 1279,
      "i8": 1280,
      "illa": 1281,
      "i3awnek": 1282,
      "iSawbo": 1283,
      "jb": 1284,
      "jtima3": 1285,
      "jdid": 1286,
      "kta": 1287,
      "kaf": 1288,
      "kbi": 1289,
      "kid": 1290,
      "kar": 1291,
      "kora": 1292,
      "k7el": 1293,
      "lchi": 1294,
      "l7a": 1295,
      "lil": 1296,
      "l9aw": 1297,
      "l7e99": 1298,
      "l7em": 1299,
      "lalla": 1300,
      "m9": 1301,
      "mou": 1302,
      "mgh": 1303,
      "mada": 1304,
      "merra": 1305,
      "ml7a": 1306,
      "nD": 1307,
      "ngol": 1308,
      "nl3eb": 1309,
      "nzid": 1310,
      "n3awnek": 1311,
      "nkteb": 1312,
      "nsift": 1313,
      "ok": 1314,
      "para": 1315,
      "pikala": 1316,
      "re": 1317,
      "rr": 1318,
      "ry": 1319,
      "rad": 1320,
      "rro": 1321,
      "rrou": 1322,
      "sn": 1323,
      "sin": 1324,
      "sim": 1325,
      "sali": 1326,
      "sa3": 1327,
      "sara": 1328,
      "simana": 1329,
      "s7abni": 1330,
      "th": 1331,
      "to": 1332,
      "tS": 1333,
      "tal": 1334,
      "trj": 1335,
      "tgol": 1336,
      "tchof": 1337,
      "tzid": 1338,
      "t8Der": 1339,
      "wS": 1340,
      "w9t": 1341,
      "wgf": 1342,
      "wr9a": 1343,
      "yak": 1344,
      "yala": 1345,
      "zf": 1346,
      "##lle": 1347,
      "##tllef": 1348,
      "##te7t": 1349,
      "##ns": 1350,
      "##eh": 1351,
      "##ej": 1352,
      "##e9": 1353,
      "##3e": 1354,
      "##3T": 1355,
      "##3ria": 1356,
      "##ida": 1357,
      "##iwa": 1358,
      "##i7a": 1359,
      "##icha": 1360,
      "##ist": 1361,
      "##ift": 1362,
      "##Dni": 1363,
      "##Dro": 1364,
      "##Dar": 1365,
      "##7er": 1366,
      "##7ia": 1367,
      "##7ma": 1368,
      "##799": 1369,
      "##7ria": 1370,
      "##7wayj": 1371,
      "##kch": 1372,
      "##koun": 1373,
      "##kira": 1374,
      "##rt": 1375,
      "##rta": 1376,
      "##r3a": 1377,
      "##rda": 1378,
      "##rbi": 1379,
      "##skh": 1380,
      "##ser": 1381,
      "##mn": 1382,
      "##mo": 1383,
      "##md": 1384,
      "##mti": 1385,
      "##mia": 1386,
      "##m3a": 1387,
      "##mis": 1388,
      "##ag": 1389,
      "##a3a": 1390,
      "##ako": 1391,
      "##akhod": 1392,
      "##hDro": 1393,
      "##o3": 1394,
      "##oz": 1395,
      "##ona": 1396,
      "##ute": 1397,
      "##fo": 1398,
      "##fada": 1399,
      "##fDD": 1400,
      "##din": 1401,
      "##bk": 1402,
      "##bS": 1403,
      "##bou": 1404,
      "##ber": 1405,
      "##bia": 1406,
      "##bel": 1407,
      "##b9a": 1408,
      "##badi2": 1409,
      "##S7": 1410,
      "##Si7a": 1411,
      "##jl": 1412,
      "##ji": 1413,
      "##jd": 1414,
      "##jj": 1415,
      "##jib": 1416,
      "##yt": 1417,
      "##yat": 1418,
      "##yyan": 1419,
      "##zT": 1420,
      "##zad": 1421,
      "##zik": 1422,
      "##zlo": 1423,
      "##zali": 1424,
      "##9ay": 1425,
      "##9ta": 1426,
      "##9oula": 1427,
      "##8m": 1428,
      "##8la": 1429,
      "##8ia": 1430,
      "##8wa": 1431,
      "##gla": 1432,
      "##gal": 1433,
      "##gdd": 1434,
      "##gadd": 1435,
      "##wna": 1436,
      "##wat": 1437,
      "##wer": 1438,
      "##wira": 1439,
      "##Tyyeb": 1440,
      "##T7o": 1441,
      "##2kha": 1442,
      "##2am": 1443,
      "##2as": 1444,
      "##00": 1445,
      "##che": 1446,
      "##chute": 1447,
      "##anin": 1448,
      "##la7a": 1449,
      "##nach": 1450,
      "waye": 1451,
      "walo": 1452,
      "wajd": 1453,
      "##hat": 1454,
      "##hach": 1455,
      "##ader": 1456,
      "maT": 1457,
      "mamt": 1458,
      "mal9": 1459,
      "makhdda": 1460,
      "##ayr": 1461,
      "##ayd": 1462,
      "ch8": 1463,
      "chta": 1464,
      "chkon": 1465,
      "chft": 1466,
      "chmch": 1467,
      "ch3ria": 1468,
      "##atan": 1469,
      "##ouz": 1470,
      "##ou9": 1471,
      "##ouma": 1472,
      "hadak": 1473,
      "hadok": 1474,
      "##ra3": 1475,
      "##ram": 1476,
      "##rab": 1477,
      "##chia": 1478,
      "##khS": 1479,
      "##khra": 1480,
      "##khss": 1481,
      "##khor": 1482,
      "##ti7an": 1483,
      "##tisa3": 1484,
      "##ta2": 1485,
      "##erf": 1486,
      "kandir": 1487,
      "kanst": 1488,
      "kanwa3": 1489,
      "kansme3": 1490,
      "kan7ma": 1491,
      "##maj": 1492,
      "##3arfo": 1493,
      "##bas": 1494,
      "khrin": 1495,
      "khrej": 1496,
      "##enni": 1497,
      "##sser": 1498,
      "##ssen": 1499,
      "##ssa3": 1500,
      "##ella": 1501,
      "kaych": 1502,
      "kaykhle3": 1503,
      "kaytllef": 1504,
      "kayjib": 1505,
      "katl3eb": 1506,
      "katsm3": 1507,
      "dari": 1508,
      "ghal": 1509,
      "dyalna": 1510,
      "ghzal": 1511,
      "ghzali": 1512,
      "mnin": 1513,
      "##ikali": 1514,
      "##ikteur": 1515,
      "##ghi": 1516,
      "##ghir": 1517,
      "##rikh": 1518,
      "##riba": 1519,
      "##rida": 1520,
      "##ribi": 1521,
      "##riban": 1522,
      "llila": 1523,
      "##9aT": 1524,
      "makn": 1525,
      "makat": 1526,
      "maklt": 1527,
      "flma": 1528,
      "flkhdma": 1529,
      "flfla": 1530,
      "flw9t": 1531,
      "flkhla": 1532,
      "##reD": 1533,
      "##diro": 1534,
      "##jawb": 1535,
      "##war": 1536,
      "##wakhir": 1537,
      "ghant": 1538,
      "ghanchouf": 1539,
      "ghangol": 1540,
      "ghanbda": 1541,
      "m3ah": 1542,
      "m3aha": 1543,
      "tl3": 1544,
      "tlma": 1545,
      "##konch": 1546,
      "##hdr": 1547,
      "lmada9": 1548,
      "mo2kha": 1549,
      "##yalat": 1550,
      "##yaDa": 1551,
      "##yeD": 1552,
      "##itt": 1553,
      "tani": 1554,
      "tanta": 1555,
      "tanfkker": 1556,
      "tandiro": 1557,
      "3ndo": 1558,
      "3ndhom": 1559,
      "##lok": 1560,
      "ahya": 1561,
      "ahlan": 1562,
      "ssba7": 1563,
      "##sala": 1564,
      "##saba": 1565,
      "##saT7o": 1566,
      "##wwl": 1567,
      "ma3ada": 1568,
      "ma3reft": 1569,
      "##bi7": 1570,
      "##TTat": 1571,
      "khssk": 1572,
      "##alama": 1573,
      "lbr": 1574,
      "lblay": 1575,
      "lboutoun": 1576,
      "ntta": 1577,
      "ntmt": 1578,
      "ntmenna": 1579,
      "ntfada": 1580,
      "ntsaT7o": 1581,
      "##edch": 1582,
      "##edda": 1583,
      "ghayj": 1584,
      "##emch": 1585,
      "fihoum": 1586,
      "fizik": 1587,
      "blfi": 1588,
      "##e7k": 1589,
      "makan3": 1590,
      "makanoch": 1591,
      "makan7m": 1592,
      "lista": 1593,
      "m39oul": 1594,
      "m39oula": 1595,
      "kantm": 1596,
      "kantsnna": 1597,
      "##ebt": 1598,
      "##Dennch": 1599,
      "##chaw": 1600,
      "jjou3": 1601,
      "khass": 1602,
      "khaTir": 1603,
      "khawar": 1604,
      "##ibat": 1605,
      "##owwet": 1606,
      "##owwej": 1607,
      "lmohim": 1608,
      "##houch": 1609,
      "##ayaran": 1610,
      "cheft": 1611,
      "3am": 1612,
      "3aw": 1613,
      "3aDim": 1614,
      "kolla": 1615,
      "kollna": 1616,
      "##7essen": 1617,
      "Taj": 1618,
      "lma9al": 1619,
      "lmabadi2": 1620,
      "ttgal": 1621,
      "##rrko": 1622,
      "ma3nd": 1623,
      "ma3ndna": 1624,
      "b3da": 1625,
      "l3ibat": 1626,
      "lksida": 1627,
      "lkhD": 1628,
      "lkhmis": 1629,
      "mblok": 1630,
      "naDi": 1631,
      "naDar": 1632,
      "nfkker": 1633,
      "nnaSi7a": 1634,
      "##mte3": 1635,
      "##jbed": 1636,
      "aw9at": 1637,
      "biha": 1638,
      "drt": 1639,
      "drhem": 1640,
      "l7i": 1641,
      "l7mer": 1642,
      "l7ayawanat": 1643,
      "l7mr": 1644,
      "lfr": 1645,
      "lflou": 1646,
      "mangdd": 1647,
      "rassi": 1648,
      "ra2i": 1649,
      "rabi7": 1650,
      "t3TT": 1651,
      "t3ref": 1652,
      "tb3": 1653,
      "tbda": 1654,
      "zwinin": 1655,
      "##mmel": 1656,
      "asra3": 1657,
      "njer": 1658,
      "n9ra": 1659,
      "sme7": 1660,
      "ti9a": 1661,
      "tawakhir": 1662,
      "##9i3": 1663,
      "ghaykono": 1664,
      "##rbo": 1665,
      "##yyen": 1666,
      "3adi": 1667,
      "ddakira": 1668,
      "tdirha": 1669,
      "kay3jbni": 1670,
      "kat3ni": 1671,
      "kat9tar7": 1672,
      "flmti7an": 1673,
      "##3awnni": 1674,
      "3rft": 1675,
      "gltha": 1676,
      "lyom": 1677,
      "mkta2": 1678,
      "nchoufk": 1679,
      "tkhelli": 1680,
      "tkhtar": 1681,
      "mamsali": 1682,
      "khllini": 1683,
      "##ssiw": 1684,
      "##khdmo": 1685,
      "##khdmch": 1686,
      "tilifoni": 1687,
      "7sn": 1688,
      "S3iba": 1689,
      "l3am": 1690,
      "n3ref": 1691,
      "nhark": 1692,
      "rrizo": 1693,
      "##rouD": 1694,
      "blmona": 1695,
      "bsbab": 1696,
      "dikssa3": 1697,
      "forchiTa": 1698,
      "fhadchi": 1699,
      "ittija": 1700,
      "tfou": 1701,
      "w93at": 1702,
      "zzher": 1703,
      "##micha": 1704,
      "##fkkerch": 1705,
      "kan3rfo": 1706,
      "khdmt": 1707,
      "khdmti": 1708,
      "##waSl": 1709,
      "ghandiro": 1710,
      "moraha": 1711,
      "tilifonk": 1712,
      "llowlin": 1713,
      "3chrin": 1714,
      "3ala9a": 1715,
      "ajw": 1716,
      "brasi": 1717,
      "jih": 1718,
      "jiha": 1719,
      "mti7an": 1720,
      "mti99en": 1721,
      "ndww": 1722,
      "##frran": 1723,
      "##frrjo": 1724,
      "##golo": 1725,
      "##nahoa": 1726,
      "machft": 1727,
      "katghoch": 1728,
      "mnnek": 1729,
      "nchoufouk": 1730,
      "9Sedti": 1731,
      "Sara7a": 1732,
      "awwal": 1733,
      "allah": 1734,
      "bdde7k": 1735,
      "bTaTa": 1736,
      "ddirha": 1737,
      "imta": 1738,
      "igollia": 1739,
      "klma": 1740,
      "llekher": 1741,
      "mwellef": 1742,
      "milad": 1743,
      "nwrrek": 1744,
      "nrj3o": 1745,
      "ostad": 1746,
      "skhoun": 1747,
      "wij": 1748,
      "##7taj": 1749,
      "##obz": 1750,
      "maghan": 1751,
      "khmsa": 1752,
      "##elle9": 1753,
      "tlkhobz": 1754,
      "##7awel": 1755,
      "lmska": 1756,
      "mo7alch": 1757,
      "tantmenna": 1758,
      "ma3mmrna": 1759,
      "##okkelhoum": 1760,
      "ntsnnaw": 1761,
      "##moutou": 1762,
      "ghat3jb": 1763,
      "mbrr3a": 1764,
      "mberr3a": 1765,
      "SSot": 1766,
      "mamzyanch": 1767,
      "ngaddo": 1768,
      "mafhemtch": 1769,
      "mitali": 1770,
      "nbddel": 1771,
      "sbrdilat": 1772,
      "2ett": 1773,
      "3aych": 1774,
      "3rram": 1775,
      "7lib": 1776,
      "7TTit": 1777,
      "Pakist": 1778,
      "Sghar": 1779,
      "Se77": 1780,
      "T7na": 1781,
      "Tanja": 1782,
      "TTa9a": 1783,
      "Tyyara": 1784,
      "Tobis": 1785,
      "Tomobil": 1786,
      "atay": 1787,
      "amal": 1788,
      "a9all": 1789,
      "bjoj": 1790,
      "bchmicha": 1791,
      "bghat": 1792,
      "d9i9a": 1793,
      "f7alat": 1794,
      "fr7an": 1795,
      "f3a2il": 1796,
      "gaddit": 1797,
      "hahoa": 1798,
      "i8ezz": 1799,
      "kafia": 1800,
      "kbira": 1801,
      "kidayr": 1802,
      "karTa": 1803,
      "l7aja": 1804,
      "lil2as": 1805,
      "l9awanin": 1806,
      "moulay": 1807,
      "madame": 1808,
      "parachute": 1809,
      "rryaDa": 1810,
      "ryada": 1811,
      "radikali": 1812,
      "rroz": 1813,
      "snin": 1814,
      "simanat": 1815,
      "salina": 1816,
      "sa3id": 1817,
      "wSlti": 1818,
      "yalah": 1819,
      "zfta": 1820,
      "##nsach": 1821,
      "##rta7": 1822,
      "##skhon": 1823,
      "##akol": 1824,
      "##bSil": 1825,
      "##zadni": 1826,
      "##9ay9": 1827,
      "##9tare7": 1828,
      "##2amen": 1829,
      "wayeeh": 1830,
      "kanstmte3": 1831,
      "kanwa3dek": 1832,
      "kan7ma9": 1833,
      "ghzalin": 1834,
      "flkhlaS": 1835,
      "mo2kharan": 1836,
      "ntmtt3o": 1837,
      "ntmennaw": 1838,
      "blfi3l": 1839,
      "lflous": 1840,
      "mangddch": 1841,
      "mamsalich": 1842,
      "blmonasaba": 1843,
      "Pakistan": 1844,
      "lil2asaf": 1845,
      "00": 1846,
      "100": 1847,
      "2am": 1848,
      "3o": 1849,
      "3y": 1850,
      "39": 1851,
      "3T": 1852,
      "30": 1853,
      "3in": 1854,
      "3er": 1855,
      "3ww": 1856,
      "3lli": 1857,
      "3cha": 1858,
      "3ib": 1859,
      "3ada": 1860,
      "3ll": 1861,
      "3oma": 1862,
      "3ell": 1863,
      "3TTel": 1864,
      "3inin": 1865,
      "3yyeT": 1866,
      "3tih": 1867,
      "3reg": 1868,
      "3reft": 1869,
      "3yalat": 1870,
      "50": 1871,
      "7i": 1872,
      "7ta": 1873,
      "7er": 1874,
      "7rf": 1875,
      "7bi": 1876,
      "7ala": 1877,
      "7aja": 1878,
      "7or": 1879,
      "799": 1880,
      "7lli": 1881,
      "7chou": 1882,
      "7ll": 1883,
      "7ell": 1884,
      "7rb": 1885,
      "7lou": 1886,
      "7tt": 1887,
      "7rg": 1888,
      "7wayj": 1889,
      "7ssen": 1890,
      "8ad": 1891,
      "9n": 1892,
      "9h": 1893,
      "9w": 1894,
      "96": 1895,
      "9ch": 1896,
      "9at": 1897,
      "9ell": 1898,
      "9add": 1899,
      "9tar7": 1900,
      "9ddem": 1901,
      "9iwa": 1902,
      "9r3a": 1903,
      "9rab": 1904,
      "Ab": 1905,
      "Boj": 1906,
      "Chou": 1907,
      "DD": 1908,
      "D7": 1909,
      "Da": 1910,
      "Dri": 1911,
      "Fa": 1912,
      "Fou": 1913,
      "Go": 1914,
      "Ham": 1915,
      "Jmia": 1916,
      "Kha": 1917,
      "Na": 1918,
      "Sf": 1919,
      "Sou": 1920,
      "Smk": 1921,
      "S7ab": 1922,
      "Sadi": 1923,
      "Sift": 1924,
      "Tw": 1925,
      "Tli": 1926,
      "Tal": 1927,
      "Tba": 1928,
      "Tro": 1929,
      "Tala": 1930,
      "Tl3": 1931,
      "Tle3": 1932,
      "Tob": 1933,
      "Terf": 1934,
      "Tayaran": 1935,
      "TbSil": 1936,
      "Zag": 1937,
      "aa": 1938,
      "af": 1939,
      "ay": 1940,
      "aha": 1941,
      "aat": 1942,
      "ara": 1943,
      "asa": 1944,
      "asi": 1945,
      "aam": 1946,
      "adna": 1947,
      "atar": 1948,
      "akhor": 1949,
      "by": 1950,
      "b9": 1951,
      "bna": 1952,
      "bin": 1953,
      "bat": 1954,
      "bta": 1955,
      "ber": 1956,
      "bni": 1957,
      "bko": 1958,
      "bik": 1959,
      "bak": 1960,
      "bim": 1961,
      "bala": 1962,
      "bsi": 1963,
      "boj": 1964,
      "brr": 1965,
      "bhad": 1966,
      "brna": 1967,
      "bbat": 1968,
      "bou3": 1969,
      "benti": 1970,
      "b7er": 1971,
      "byeD": 1972,
      "bTTat": 1973,
      "co": 1974,
      "com": 1975,
      "car": 1976,
      "cine": 1977,
      "df": 1978,
      "dat": 1979,
      "der": 1980,
      "dir": 1981,
      "dib": 1982,
      "dow": 1983,
      "douch": 1984,
      "dwira": 1985,
      "douz": 1986,
      "d9ay9": 1987,
      "ema": 1988,
      "f3": 1989,
      "f7": 1990,
      "fd": 1991,
      "f9": 1992,
      "fT": 1993,
      "fch": 1994,
      "fla": 1995,
      "fna": 1996,
      "fat": 1997,
      "fkh": 1998,
      "fda": 1999,
      "f7al": 2000,
      "fran": 2001,
      "fTT": 2002,
      "fdik": 2003,
      "fsser": 2004,
      "gal": 2005,
      "gdda": 2006,
      "gadd": 2007,
      "goul": 2008,
      "gar": 2009,
      "gddi": 2010,
      "hd": 2011,
      "ham": 2012,
      "hezz": 2013,
      "hhh": 2014,
      "hder": 2015,
      "in": 2016,
      "i3": 2017,
      "i7": 2018,
      "ij": 2019,
      "iz": 2020,
      "ina": 2021,
      "ija": 2022,
      "ir7": 2023,
      "i3aw": 2024,
      "i9dro": 2025,
      "ikhdm": 2026,
      "ib9aw": 2027,
      "izid": 2028,
      "irdd": 2029,
      "jan": 2030,
      "jat": 2031,
      "jit": 2032,
      "jiti": 2033,
      "joww": 2034,
      "jani": 2035,
      "jow": 2036,
      "j3l": 2037,
      "jara": 2038,
      "jddi": 2039,
      "jrre": 2040,
      "joz": 2041,
      "jrida": 2042,
      "jebt": 2043,
      "km": 2044,
      "ka": 2045,
      "ko": 2046,
      "kna": 2047,
      "kli": 2048,
      "kom": 2049,
      "kil": 2050,
      "ka3": 2051,
      "kadd": 2052,
      "klat": 2053,
      "kafi": 2054,
      "kfa": 2055,
      "kas": 2056,
      "kaddir": 2057,
      "kenti": 2058,
      "ksida": 2059,
      "kmmel": 2060,
      "ls": 2061,
      "lh": 2062,
      "lo": 2063,
      "l8": 2064,
      "lp": 2065,
      "lha": 2066,
      "lach": 2067,
      "lko": 2068,
      "lhd": 2069,
      "lim": 2070,
      "lbi": 2071,
      "la3": 2072,
      "ll3": 2073,
      "lka": 2074,
      "llt": 2075,
      "lgol": 2076,
      "low": 2077,
      "l8D": 2078,
      "l7ala": 2079,
      "loT": 2080,
      "lkar": 2081,
      "lowwel": 2082,
      "lddar": 2083,
      "lkhdda": 2084,
      "lte7t": 2085,
      "mD": 2086,
      "mf": 2087,
      "mch": 2088,
      "mad": 2089,
      "mni": 2090,
      "mri": 2091,
      "m7e": 2092,
      "mst": 2093,
      "mess": 2094,
      "myya": 2095,
      "msta": 2096,
      "mech": 2097,
      "maddir": 2098,
      "mgadd": 2099,
      "mnach": 2100,
      "menni": 2101,
      "nk": 2102,
      "nm": 2103,
      "nha": 2104,
      "nti": 2105,
      "n3a": 2106,
      "nba": 2107,
      "nss": 2108,
      "nni": 2109,
      "ngh": 2110,
      "n7e": 2111,
      "nef": 2112,
      "nok": 2113,
      "na3": 2114,
      "n99": 2115,
      "nr7": 2116,
      "nyya": 2117,
      "nSawb": 2118,
      "n3awd": 2119,
      "nSawbo": 2120,
      "nl9": 2121,
      "nhdro": 2122,
      "n8Dro": 2123,
      "nzlo": 2124,
      "njbed": 2125,
      "nkhdmo": 2126,
      "n7awel": 2127,
      "nmoutou": 2128,
      "nrta7": 2129,
      "ol": 2130,
      "ot": 2131,
      "om": 2132,
      "ou": 2133,
      "o9t": 2134,
      "otch": 2135,
      "omou": 2136,
      "olah": 2137,
      "olb": 2138,
      "pi": 2139,
      "pla": 2140,
      "pcha": 2141,
      "pis": 2142,
      "ri": 2143,
      "rf": 2144,
      "rb": 2145,
      "rdd": 2146,
      "reb": 2147,
      "rani": 2148,
      "rrb": 2149,
      "rout": 2150,
      "rddi": 2151,
      "reddo": 2152,
      "roz": 2153,
      "st": 2154,
      "se": 2155,
      "so": 2156,
      "sou": 2157,
      "sti": 2158,
      "sah": 2159,
      "sww": 2160,
      "sbb": 2161,
      "srb": 2162,
      "safi": 2163,
      "sinin": 2164,
      "smou7at": 2165,
      "sbbaT": 2166,
      "sikteur": 2167,
      "tk": 2168,
      "t8": 2169,
      "tw": 2170,
      "t2": 2171,
      "tla": 2172,
      "tli": 2173,
      "ten": 2174,
      "tdd": 2175,
      "tit": 2176,
      "t7e": 2177,
      "tro": 2178,
      "tran": 2179,
      "taja": 2180,
      "tno": 2181,
      "tmchi": 2182,
      "t8D": 2183,
      "tyy": 2184,
      "tlat": 2185,
      "t7e99": 2186,
      "tddi": 2187,
      "twaS": 2188,
      "tD7": 2189,
      "tsm3": 2190,
      "taddir": 2191,
      "tomobi": 2192,
      "tredd": 2193,
      "t7eTT": 2194,
      "tokkel": 2195,
      "ttisa3": 2196,
      "thdr": 2197,
      "tjbed": 2198,
      "trta7": 2199,
      "vila": 2200,
      "wh": 2201,
      "wg": 2202,
      "wit": 2203,
      "well": 2204,
      "wrrek": 2205,
      "wjj": 2206,
      "yoj": 2207,
      "yyam": 2208,
      "yyamat": 2209,
      "yaklo": 2210,
      "yakol": 2211,
      "z3": 2212,
      "zine": 2213,
      "zinin": 2214,
      "zher": 2215,
      "zbel": 2216,
      "zayd": 2217,
      "##lk": 2218,
      "##lf": 2219,
      "##lch": 2220,
      "##lyan": 2221,
      "##ll3": 2222,
      "##loun": 2223,
      "##lgha": 2224,
      "##l7em": 2225,
      "##t7": 2226,
      "##t9": 2227,
      "##tal": 2228,
      "##tma": 2229,
      "##tgh": 2230,
      "##tya": 2231,
      "##tsa": 2232,
      "##ton": 2233,
      "##tani": 2234,
      "##tkom": 2235,
      "##ttha": 2236,
      "##tini": 2237,
      "##tfo": 2238,
      "##tader": 2239,
      "##nni": 2240,
      "##nsa": 2241,
      "##nza": 2242,
      "##n3at": 2243,
      "##nDim": 2244,
      "##ne9": 2245,
      "##n3e": 2246,
      "##nS7": 2247,
      "##nzlo": 2248,
      "##nTyyeb": 2249,
      "##eS": 2250,
      "##eda": 2251,
      "##eel": 2252,
      "##e99": 2253,
      "##eyy": 2254,
      "##eDD": 2255,
      "##e9ch": 2256,
      "##ekhla": 2257,
      "##3r": 2258,
      "##3s": 2259,
      "##3d": 2260,
      "##3j": 2261,
      "##3ch": 2262,
      "##3ad": 2263,
      "##3ou": 2264,
      "##3ti": 2265,
      "##3ta": 2266,
      "##3ba": 2267,
      "##3el": 2268,
      "##3lo": 2269,
      "##3Ta": 2270,
      "##3ran": 2271,
      "##3ed": 2272,
      "##3em": 2273,
      "##3dda": 2274,
      "##3ess": 2275,
      "##3yye": 2276,
      "##3ell": 2277,
      "##3Di": 2278,
      "##3chia": 2279,
      "##3rouD": 2280,
      "##ih": 2281,
      "##if": 2282,
      "##ich": 2283,
      "##iha": 2284,
      "##iat": 2285,
      "##ism": 2286,
      "##iyya": 2287,
      "##ikhir": 2288,
      "##iyyeT": 2289,
      "##Dw": 2290,
      "##Dat": 2291,
      "##Dor": 2292,
      "##Dyy": 2293,
      "##Derr": 2294,
      "##Dou3": 2295,
      "##Dreb": 2296,
      "##Do3": 2297,
      "##Dader": 2298,
      "##Della": 2299,
      "##7t": 2300,
      "##7in": 2301,
      "##7ss": 2302,
      "##7ri": 2303,
      "##77a": 2304,
      "##7id": 2305,
      "##7lli": 2306,
      "##7bb": 2307,
      "##7lin": 2308,
      "##7rg": 2309,
      "##7reg": 2310,
      "##kan": 2311,
      "##kal": 2312,
      "##kta": 2313,
      "##kit": 2314,
      "##kka": 2315,
      "##kaya": 2316,
      "##kila": 2317,
      "##kmi": 2318,
      "##kalama": 2319,
      "##rha": 2320,
      "##rti": 2321,
      "##rba": 2322,
      "##rni": 2323,
      "##rri": 2324,
      "##raya": 2325,
      "##rddi": 2326,
      "##rzT": 2327,
      "##rkila": 2328,
      "##sha": 2329,
      "##sin": 2330,
      "##sia": 2331,
      "##s3a": 2332,
      "##sba": 2333,
      "##slo": 2334,
      "##shom": 2335,
      "##sTa": 2336,
      "##s8a": 2337,
      "##s7ab": 2338,
      "##skher": 2339,
      "##sowwel": 2340,
      "##sport": 2341,
      "##sekch": 2342,
      "##ml": 2343,
      "##my": 2344,
      "##mna": 2345,
      "##min": 2346,
      "##mta": 2347,
      "##men": 2348,
      "##me7": 2349,
      "##m3o": 2350,
      "##mekch": 2351,
      "##mreD": 2352,
      "##aj": 2353,
      "##akh": 2354,
      "##akhd": 2355,
      "##ais": 2356,
      "##asan": 2357,
      "##arikh": 2358,
      "##a9i3": 2359,
      "##hzz": 2360,
      "##how": 2361,
      "##hmo": 2362,
      "##cre": 2363,
      "##ceb": 2364,
      "##cine": 2365,
      "##ckta": 2366,
      "##cais": 2367,
      "##o8": 2368,
      "##og": 2369,
      "##oli": 2370,
      "##oha": 2371,
      "##ota": 2372,
      "##oya": 2373,
      "##olo": 2374,
      "##ook": 2375,
      "##o3l": 2376,
      "##osTa": 2377,
      "##uer": 2378,
      "##ueddo": 2379,
      "##fl": 2380,
      "##fk": 2381,
      "##f8": 2382,
      "##fch": 2383,
      "##fin": 2384,
      "##fak": 2385,
      "##flo": 2386,
      "##fhem": 2387,
      "##fekk": 2388,
      "##dm": 2389,
      "##dal": 2390,
      "##derra": 2391,
      "##d3a2": 2392,
      "##dowwez": 2393,
      "##bl": 2394,
      "##bt": 2395,
      "##b7": 2396,
      "##bs": 2397,
      "##bz": 2398,
      "##bT": 2399,
      "##bal": 2400,
      "##bin": 2401,
      "##bni": 2402,
      "##bbi": 2403,
      "##bor": 2404,
      "##boch": 2405,
      "##bto": 2406,
      "##b7er": 2407,
      "##bribi": 2408,
      "##byyen": 2409,
      "##Sl": 2410,
      "##SS": 2411,
      "##Sel": 2412,
      "##Sir": 2413,
      "##SSa": 2414,
      "##Sbb": 2415,
      "##Stha": 2416,
      "##Salat": 2417,
      "##Sla7a": 2418,
      "##jo": 2419,
      "##jra": 2420,
      "##jerr": 2421,
      "##jrda": 2422,
      "##jowwej": 2423,
      "##yach": 2424,
      "##yaf": 2425,
      "##youma": 2426,
      "##ykhss": 2427,
      "##zti": 2428,
      "##z3em": 2429,
      "##93": 2430,
      "##9k": 2431,
      "##9m": 2432,
      "##9o": 2433,
      "##9ha": 2434,
      "##9ad": 2435,
      "##9in": 2436,
      "##9ti": 2437,
      "##9ia": 2438,
      "##9el": 2439,
      "##9ek": 2440,
      "##9edd": 2441,
      "##9Sed": 2442,
      "##9add": 2443,
      "##9tar7": 2444,
      "##9zo": 2445,
      "##9itch": 2446,
      "##9ssiw": 2447,
      "##9elle9": 2448,
      "##9bal": 2449,
      "##8ch": 2450,
      "##8om": 2451,
      "##8im": 2452,
      "##8dd": 2453,
      "##8aya": 2454,
      "##8lan": 2455,
      "##8owa": 2456,
      "##8rt": 2457,
      "##8bT": 2458,
      "##gan": 2459,
      "##gim": 2460,
      "##gles": 2461,
      "##gram": 2462,
      "##guer": 2463,
      "##wk": 2464,
      "##wch": 2465,
      "##wan": 2466,
      "##wad": 2467,
      "##wal": 2468,
      "##wni": 2469,
      "##wid": 2470,
      "##w99": 2471,
      "##wlli": 2472,
      "##wlt": 2473,
      "##w3l": 2474,
      "##wez": 2475,
      "##wllef": 2476,
      "##wtt": 2477,
      "##Tik": 2478,
      "##Taf": 2479,
      "##Twa": 2480,
      "##Tya": 2481,
      "##Tef": 2482,
      "##TTa": 2483,
      "##Tour": 2484,
      "##Tyy": 2485,
      "##Tini": 2486,
      "##Tech": 2487,
      "##T3in": 2488,
      "##Tlb": 2489,
      "##Tiw": 2490,
      "##Tania": 2491,
      "##Tll3": 2492,
      "##Tif": 2493,
      "##2al": 2494,
      "##2id": 2495,
      "##2ala": 2496,
      "##2kk": 2497,
      "##2alat": 2498,
      "##2aj": 2499,
      "##ps": 2500,
      "##par": 2501,
      "##pte": 2502,
      "##pis": 2503,
      "##pikala": 2504,
      "##xi": 2505,
      "##cher": 2506,
      "##chran": 2507,
      "##chreb": 2508,
      "##chrab": 2509,
      "##anoun": 2510,
      "##lak": 2511,
      "##lama": 2512,
      "##la9aw": 2513,
      "##la9at": 2514,
      "##naha": 2515,
      "##nasi": 2516,
      "wah": 2517,
      "wali": 2518,
      "waD7": 2519,
      "wagf": 2520,
      "wat9": 2521,
      "wa7id": 2522,
      "was3a": 2523,
      "waa9i3": 2524,
      "wa93": 2525,
      "##lil": 2526,
      "##lih": 2527,
      "##lid": 2528,
      "##li7a": 2529,
      "##lihom": 2530,
      "##lihoum": 2531,
      "##lito": 2532,
      "##hazz": 2533,
      "##ads": 2534,
      "##ado": 2535,
      "##adad": 2536,
      "##adia": 2537,
      "##adyy": 2538,
      "##adowat": 2539,
      "##adatan": 2540,
      "mama": 2541,
      "ma3a": 2542,
      "mawa": 2543,
      "masa": 2544,
      "mabi": 2545,
      "match": 2546,
      "ma9der": 2547,
      "malay": 2548,
      "ma8ia": 2549,
      "makhdmch": 2550,
      "malk": 2551,
      "ma7lli": 2552,
      "marddi": 2553,
      "mahzz": 2554,
      "maz3em": 2555,
      "ma9add": 2556,
      "mahazz": 2557,
      "##alo": 2558,
      "##alta": 2559,
      "##almi": 2560,
      "##alza": 2561,
      "##ayat": 2562,
      "##ayda": 2563,
      "##aylou": 2564,
      "##aynach": 2565,
      "chia": 2566,
      "chri": 2567,
      "chrj": 2568,
      "chedd": 2569,
      "chkla": 2570,
      "chmn": 2571,
      "chkhS": 2572,
      "chemch": 2573,
      "chnahoa": 2574,
      "chttha": 2575,
      "chjra": 2576,
      "chchrab": 2577,
      "##inch": 2578,
      "##inyal": 2579,
      "##atch": 2580,
      "##atni": 2581,
      "##atida": 2582,
      "##atbni": 2583,
      "##ou7": 2584,
      "##oum": 2585,
      "##oub": 2586,
      "##oug": 2587,
      "##oura": 2588,
      "##ouya": 2589,
      "##oumou": 2590,
      "##oum3a": 2591,
      "##oufk": 2592,
      "##ouwez": 2593,
      "hado": 2594,
      "##rari": 2595,
      "##raja": 2596,
      "##ra7a": 2597,
      "##rasa": 2598,
      "##rassi": 2599,
      "##rafs": 2600,
      "##rabat": 2601,
      "##chit": 2602,
      "##dich": 2603,
      "##diti": 2604,
      "##khef": 2605,
      "##khrj": 2606,
      "##khrin": 2607,
      "##khl3": 2608,
      "##khess": 2609,
      "##khll": 2610,
      "##khour": 2611,
      "##khrjo": 2612,
      "##khlin": 2613,
      "##khsr": 2614,
      "##khDer": 2615,
      "##khbia": 2616,
      "##kheyy": 2617,
      "##khTef": 2618,
      "##tiw": 2619,
      "##ticha": 2620,
      "##ti99en": 2621,
      "##tihach": 2622,
      "##tiSalat": 2623,
      "##ti9bal": 2624,
      "##taz": 2625,
      "##tach": 2626,
      "##tair": 2627,
      "##ta9d": 2628,
      "##tarm": 2629,
      "##ta2i": 2630,
      "##tamd": 2631,
      "##ta3ch": 2632,
      "##tafl": 2633,
      "##ers": 2634,
      "##erd": 2635,
      "##erin": 2636,
      "##er3a": 2637,
      "##erba": 2638,
      "##erre": 2639,
      "##erja": 2640,
      "##erro": 2641,
      "##errfo": 2642,
      "##errej": 2643,
      "kankon": 2644,
      "kanchof": 2645,
      "kangoul": 2646,
      "kanl3b": 2647,
      "kanSawbo": 2648,
      "kanfi": 2649,
      "kandou": 2650,
      "kanhDro": 2651,
      "kanghir": 2652,
      "kanhdr": 2653,
      "kan7awel": 2654,
      "kanokkelhoum": 2655,
      "kan9tare7": 2656,
      "kanDyy": 2657,
      "kan9Sed": 2658,
      "kanTlb": 2659,
      "kankhTef": 2660,
      "##mas": 2661,
      "##mach": 2662,
      "##mala": 2663,
      "##magh": 2664,
      "##3aml": 2665,
      "##ba9": 2666,
      "##bar7": 2667,
      "khs": 2668,
      "khdd": 2669,
      "khl3": 2670,
      "khrjo": 2671,
      "khod": 2672,
      "khoS": 2673,
      "khtek": 2674,
      "khsr": 2675,
      "khdit": 2676,
      "khbar": 2677,
      "khddem": 2678,
      "khoya": 2679,
      "khTwa": 2680,
      "khlito": 2681,
      "khouya": 2682,
      "khditi": 2683,
      "##ench": 2684,
      "##dach": 2685,
      "##ssel": 2686,
      "##ssir": 2687,
      "##ssyin": 2688,
      "##elt": 2689,
      "##elb": 2690,
      "##elch": 2691,
      "##elti": 2692,
      "##ello": 2693,
      "##ellaw": 2694,
      "kaydir": 2695,
      "kay7e": 2696,
      "kay9t": 2697,
      "kay3aw": 2698,
      "kaysta": 2699,
      "kayhder": 2700,
      "kaybba": 2701,
      "kayl3eb": 2702,
      "kayb9aw": 2703,
      "kayo93": 2704,
      "kayakhod": 2705,
      "kay3awnni": 2706,
      "kaygolo": 2707,
      "kayskhon": 2708,
      "kayDreb": 2709,
      "kays7ab": 2710,
      "kaydowwez": 2711,
      "kaybyyen": 2712,
      "kayTll3": 2713,
      "kaykhsr": 2714,
      "chikaya": 2715,
      "chips": 2716,
      "kat3aw": 2717,
      "katchouf": 2718,
      "katmenna": 2719,
      "kathder": 2720,
      "katSawb": 2721,
      "katfkker": 2722,
      "katnch": 2723,
      "katgoul": 2724,
      "katl3b": 2725,
      "kathdro": 2726,
      "kathDro": 2727,
      "katfDD": 2728,
      "katb9a": 2729,
      "kat3arfo": 2730,
      "katgolo": 2731,
      "katokkelhoum": 2732,
      "katskhon": 2733,
      "katakol": 2734,
      "kat2amen": 2735,
      "katn3e": 2736,
      "kat7reg": 2737,
      "katsowwel": 2738,
      "katfekk": 2739,
      "katSbb": 2740,
      "katgles": 2741,
      "katwlli": 2742,
      "katkhrj": 2743,
      "##ahida": 2744,
      "##ahnTyyeb": 2745,
      "dar": 2746,
      "darou": 2747,
      "dakhlin": 2748,
      "##niw": 2749,
      "ghabi": 2750,
      "ghaali": 2751,
      "ghatch": 2752,
      "ghalaT": 2753,
      "##kor": 2754,
      "dyalkom": 2755,
      "dyal8a": 2756,
      "ghi": 2757,
      "ghdi": 2758,
      "ghle": 2759,
      "ghdda": 2760,
      "ghech": 2761,
      "ghedda": 2762,
      "ghykhss": 2763,
      "mnna": 2764,
      "mnni": 2765,
      "mnDD": 2766,
      "mnghir": 2767,
      "mnta3ch": 2768,
      "achef": 2769,
      "achno": 2770,
      "achballik": 2771,
      "achnah": 2772,
      "achmn": 2773,
      "achmen": 2774,
      "##ghda": 2775,
      "##ghTT": 2776,
      "##ghbr": 2777,
      "##ghedda": 2778,
      "##ghnni": 2779,
      "##ghlak": 2780,
      "##ri3": 2781,
      "##rib": 2782,
      "##ri7in": 2783,
      "##riTania": 2784,
      "3nne9": 2785,
      "3lah": 2786,
      "3layach": 2787,
      "##ekni": 2788,
      "##omo": 2789,
      "##omet": 2790,
      "##9asm": 2791,
      "makla": 2792,
      "flkha": 2793,
      "fl7i": 2794,
      "flbla": 2795,
      "flkher": 2796,
      "flte7t": 2797,
      "flwer": 2798,
      "flfrran": 2799,
      "flloun": 2800,
      "flb7er": 2801,
      "fl9edd": 2802,
      "flpar": 2803,
      "fllil": 2804,
      "flghda": 2805,
      "rahom": 2806,
      "rahoa": 2807,
      "##rem": 2808,
      "##ressyin": 2809,
      "##dirch": 2810,
      "##dirat": 2811,
      "##dirou": 2812,
      "3lib": 2813,
      "3lina": 2814,
      "3lihoum": 2815,
      "anak": 2816,
      "anahom": 2817,
      "##nnaw": 2818,
      "##jab": 2819,
      "##jawk": 2820,
      "##wab": 2821,
      "ghany": 2822,
      "ghankon": 2823,
      "ghanrj": 2824,
      "ghanst": 2825,
      "ghan9der": 2826,
      "ghan3awd": 2827,
      "ghan8Der": 2828,
      "ghankteb": 2829,
      "ghanrdd": 2830,
      "ghanredd": 2831,
      "ghanhdro": 2832,
      "ghan7eTT": 2833,
      "ghan8Dro": 2834,
      "ghanakhod": 2835,
      "ghanb9a": 2836,
      "ghanTyyeb": 2837,
      "ghanjawb": 2838,
      "ghankhdmo": 2839,
      "ghanmoutou": 2840,
      "ghan9tare7": 2841,
      "ghannzlo": 2842,
      "ghan3ta": 2843,
      "ghanmreD": 2844,
      "ghanakhd": 2845,
      "ghan8bT": 2846,
      "ghankhrjo": 2847,
      "ghanghTT": 2848,
      "m3akom": 2849,
      "tlkhdma": 2850,
      "tl7i": 2851,
      "tlyamat": 2852,
      "tl7o": 2853,
      "tlw9t": 2854,
      "tl7wayj": 2855,
      "tlmd": 2856,
      "tlber": 2857,
      "tll7em": 2858,
      "tlyouma": 2859,
      "tl2aj": 2860,
      "tlpikala": 2861,
      "tlou7": 2862,
      "##7abi": 2863,
      "##7amia": 2864,
      "##yania": 2865,
      "lmra": 2866,
      "lmen": 2867,
      "lml7a": 2868,
      "lmayd": 2869,
      "lm3rouD": 2870,
      "lmDella": 2871,
      "lmSla7a": 2872,
      "modda": 2873,
      "mosi9a": 2874,
      "mo7ri": 2875,
      "mokalama": 2876,
      "mo8im": 2877,
      "monasi": 2878,
      "moghnni": 2879,
      "mori7in": 2880,
      "modirat": 2881,
      "mo7amia": 2882,
      "##akil": 2883,
      "##imat": 2884,
      "##ddo": 2885,
      "##ddin": 2886,
      "##ddat": 2887,
      "##ddeda": 2888,
      "##yaTa": 2889,
      "##yasia": 2890,
      "##itk": 2891,
      "##itini": 2892,
      "##zza": 2893,
      "tankon": 2894,
      "tankha": 2895,
      "tansm": 2896,
      "tan8D": 2897,
      "tanhder": 2898,
      "tankhdm": 2899,
      "tanbr": 2900,
      "tanl3eb": 2901,
      "tanD7": 2902,
      "tansm3": 2903,
      "tan8Der": 2904,
      "tanTir": 2905,
      "tan8Dro": 2906,
      "tanbk": 2907,
      "tan7taj": 2908,
      "tan7bb": 2909,
      "tan9tar7": 2910,
      "mzyanin": 2911,
      "3ndek": 2912,
      "3ndkom": 2913,
      "##khafch": 2914,
      "ssma": 2915,
      "ssok": 2916,
      "ssbbaT": 2917,
      "ssway": 2918,
      "sskar": 2919,
      "ssa3a": 2920,
      "ssbou": 2921,
      "ssou9": 2922,
      "ssikteur": 2923,
      "ssads": 2924,
      "ssinyal": 2925,
      "ssoum3a": 2926,
      "##roria": 2927,
      "##ronza": 2928,
      "##rogram": 2929,
      "##rfi": 2930,
      "##rfoch": 2931,
      "##sas": 2932,
      "##saj": 2933,
      "##sawia": 2934,
      "##homch": 2935,
      "##wwlo": 2936,
      "##wwzo": 2937,
      "##wwenti": 2938,
      "ma3zz": 2939,
      "ma3ref": 2940,
      "ma3dna": 2941,
      "ma3adyy": 2942,
      "bzzerba": 2943,
      "##bil": 2944,
      "##biT": 2945,
      "##bi3t": 2946,
      "##rani": 2947,
      "##ranat": 2948,
      "##ransawia": 2949,
      "##TTik": 2950,
      "##TTe3": 2951,
      "##TTini": 2952,
      "##TTlna": 2953,
      "annahom": 2954,
      "annakom": 2955,
      "anna8a": 2956,
      "ttaf9": 2957,
      "ttarikh": 2958,
      "ttahow": 2959,
      "khsshom": 2960,
      "khss9k": 2961,
      "lb7al": 2962,
      "lbTT": 2963,
      "lbsala": 2964,
      "lbTTat": 2965,
      "lb3Di": 2966,
      "lboli": 2967,
      "lbTTa": 2968,
      "lberd": 2969,
      "lbriTania": 2970,
      "ntsr": 2971,
      "ntme": 2972,
      "nt3e": 2973,
      "ntS7": 2974,
      "ntwaSl": 2975,
      "ntfrrjo": 2976,
      "ntkal": 2977,
      "nt8dd": 2978,
      "ntw99": 2979,
      "ntkheyy": 2980,
      "ntghedda": 2981,
      "##edti": 2982,
      "##khdhom": 2983,
      "ghaybda": 2984,
      "ghay7el": 2985,
      "ghayo93": 2986,
      "ghay3T": 2987,
      "ghaykoun": 2988,
      "ghaykhss": 2989,
      "ghayjawb": 2990,
      "ghay3awnni": 2991,
      "ghayzadni": 2992,
      "ghaytgh": 2993,
      "ghaykhess": 2994,
      "##emm": 2995,
      "##emt3o": 2996,
      "fih": 2997,
      "fiyya": 2998,
      "finahoa": 2999,
      "blma3": 3000,
      "blkhariTa": 3001,
      "bl7wayj": 3002,
      "bl3chia": 3003,
      "blkhef": 3004,
      "tayballik": 3005,
      "taykhlli": 3006,
      "taykhle3": 3007,
      "tay7aw": 3008,
      "tayo93": 3009,
      "tay7ss": 3010,
      "##tchaf": 3011,
      "##itich": 3012,
      "##a3ir": 3013,
      "##SaS": 3014,
      "kima": 3015,
      "kikhdm": 3016,
      "kijawk": 3017,
      "##e77a": 3018,
      "##oroun": 3019,
      "##orchiTa": 3020,
      "##oroub": 3021,
      "##99i": 3022,
      "##99ess": 3023,
      "##ennana": 3024,
      "##ennet": 3025,
      "makanlou": 3026,
      "makan9ch": 3027,
      "makan3arfo": 3028,
      "makanDennch": 3029,
      "makankhdmch": 3030,
      "makan2amen": 3031,
      "makannS7": 3032,
      "makanf8": 3033,
      "makankhll": 3034,
      "babba": 3035,
      "baghi": 3036,
      "ba9ia": 3037,
      "lioma": 3038,
      "m3na": 3039,
      "m3oww": 3040,
      "m3owwel": 3041,
      "m3rouD": 3042,
      "##moura": 3043,
      "##ojd": 3044,
      "matgol": 3045,
      "mat7e99": 3046,
      "maths": 3047,
      "matredd": 3048,
      "matsali": 3049,
      "matsift": 3050,
      "mat7taj": 3051,
      "matnsach": 3052,
      "matkhafch": 3053,
      "kantfrrjo": 3054,
      "kantla9aw": 3055,
      "kantkhl3": 3056,
      "fachal": 3057,
      "lwosTa": 3058,
      "lwalo": 3059,
      "lwahida": 3060,
      "##ebna": 3061,
      "##rini": 3062,
      "##chabto": 3063,
      "##3awenni": 3064,
      "makayna": 3065,
      "makay7em": 3066,
      "makayl3b": 3067,
      "makaykteb": 3068,
      "jjoj": 3069,
      "jjdou": 3070,
      "jjdid": 3071,
      "jjrda": 3072,
      "jjo3": 3073,
      "jjrida": 3074,
      "jjiha": 3075,
      "jjranat": 3076,
      "kharj": 3077,
      "khasr": 3078,
      "khashom": 3079,
      "##l3atch": 3080,
      "##ibia": 3081,
      "##ibtek": 3082,
      "##kaina": 3083,
      "##stad": 3084,
      "##stora": 3085,
      "##sttfo": 3086,
      "##owwlo": 3087,
      "##owwro": 3088,
      "##owwjo": 3089,
      "ghatwer": 3090,
      "ghat7essen": 3091,
      "ghatjowwej": 3092,
      "ghatwllef": 3093,
      "ghat3awenni": 3094,
      "lmosta": 3095,
      "lmoD7": 3096,
      "lmosi9a": 3097,
      "lmosa3": 3098,
      "lmofDD": 3099,
      "lmola7a": 3100,
      "lmo3ad": 3101,
      "lmoTour": 3102,
      "lmoddat": 3103,
      "8naya": 3104,
      "llah": 3105,
      "##9derch": 3106,
      "3aTya": 3107,
      "3aadatan": 3108,
      "3abiT": 3109,
      "b7alla": 3110,
      "b7alek": 3111,
      "kolha": 3112,
      "kolhom": 3113,
      "ndirha": 3114,
      "ndirhoum": 3115,
      "mohimm": 3116,
      "##7essch": 3117,
      "Taba9": 3118,
      "Tabi3t": 3119,
      "ballia": 3120,
      "l9it": 3121,
      "l9iti": 3122,
      "l9iwa": 3123,
      "l9r3a": 3124,
      "l98wa": 3125,
      "l9ism": 3126,
      "l9raya": 3127,
      "l9Sir": 3128,
      "l9anoun": 3129,
      "l9adia": 3130,
      "l9aylou": 3131,
      "l9er3a": 3132,
      "l9oroun": 3133,
      "lma9ad": 3134,
      "lmawad": 3135,
      "lmaTaf": 3136,
      "mrrakch": 3137,
      "ttran": 3138,
      "ttani": 3139,
      "tt3T": 3140,
      "tt7essen": 3141,
      "ttbSil": 3142,
      "ttlgha": 3143,
      "ttnDim": 3144,
      "tt3Ta": 3145,
      "ttalta": 3146,
      "tterja": 3147,
      "tt3aml": 3148,
      "##ltek": 3149,
      "##ilat": 3150,
      "##kkro": 3151,
      "##rrDni": 3152,
      "##ftt": 3153,
      "ma3ndach": 3154,
      "b3id": 3155,
      "l3od": 3156,
      "l3mer": 3157,
      "l3oTla": 3158,
      "l3rg": 3159,
      "l3chia": 3160,
      "l3yalat": 3161,
      "l3bt": 3162,
      "l3Tech": 3163,
      "l3chran": 3164,
      "l3adad": 3165,
      "lkbir": 3166,
      "lklb": 3167,
      "lkbar": 3168,
      "lkouz": 3169,
      "lklyan": 3170,
      "lk7lin": 3171,
      "lkado": 3172,
      "lkrafs": 3173,
      "lkmala": 3174,
      "lkelb": 3175,
      "laa": 3176,
      "larb": 3177,
      "lagla": 3178,
      "labas": 3179,
      "labs": 3180,
      "law3l": 3181,
      "lapis": 3182,
      "lkhra": 3183,
      "lkhir": 3184,
      "lkhell": 3185,
      "lkhbz": 3186,
      "lkhimat": 3187,
      "mbrzT": 3188,
      "nnour": 3189,
      "nne99": 3190,
      "nn3ess": 3191,
      "nnDader": 3192,
      "nn9zo": 3193,
      "nnmoura": 3194,
      "nari": 3195,
      "na7ia": 3196,
      "nfsi": 3197,
      "nfhem": 3198,
      "nfekk": 3199,
      "nfsser": 3200,
      "nfhmo": 3201,
      "nffak": 3202,
      "nfkkro": 3203,
      "nna9ch": 3204,
      "nnatija": 3205,
      "nna7ia": 3206,
      "nnata2i": 3207,
      "ollah": 3208,
      "##e3tini": 3209,
      "##essi": 3210,
      "##esser": 3211,
      "##mt3ti": 3212,
      "##bbat": 3213,
      "##bber": 3214,
      "##bbek": 3215,
      "##bbyin": 3216,
      "##bboch": 3217,
      "##bbouch": 3218,
      "##jbhoum": 3219,
      "anani": 3220,
      "anchof": 3221,
      "angla": 3222,
      "awla": 3223,
      "awddi": 3224,
      "awlaw": 3225,
      "bih": 3226,
      "bihoum": 3227,
      "bisala": 3228,
      "biikhir": 3229,
      "drnaha": 3230,
      "l7fla": 3231,
      "l7ayat": 3232,
      "l7bbat": 3233,
      "lfikra": 3234,
      "lfr9a": 3235,
      "lfou9": 3236,
      "lfram": 3237,
      "lfraja": 3238,
      "lfransawia": 3239,
      "lforchiTa": 3240,
      "manmchi": 3241,
      "mankonch": 3242,
      "manfkkerch": 3243,
      "mannsach": 3244,
      "mannsa": 3245,
      "man3yye": 3246,
      "man9ssiw": 3247,
      "mandirou": 3248,
      "man9derch": 3249,
      "rasi": 3250,
      "rabb": 3251,
      "rask": 3252,
      "rajl": 3253,
      "rasha": 3254,
      "t3yye": 3255,
      "t3TTel": 3256,
      "t3tih": 3257,
      "t3Tik": 3258,
      "t3tamd": 3259,
      "t3errfo": 3260,
      "t3bber": 3261,
      "tbghi": 3262,
      "tbdal": 3263,
      "tberre": 3264,
      "tbronza": 3265,
      "##llS": 3266,
      "##llkha": 3267,
      "##llekni": 3268,
      "##mmrha": 3269,
      "##mm9o": 3270,
      "##ghawat": 3271,
      "mayora": 3272,
      "maygoul": 3273,
      "mayddar": 3274,
      "maymout": 3275,
      "maykonch": 3276,
      "maytchaf": 3277,
      "mayojd": 3278,
      "##ell9ek": 3279,
      "asli7a": 3280,
      "asatida": 3281,
      "ktebt": 3282,
      "nji": 3283,
      "njina": 3284,
      "njerr": 3285,
      "nj3lo": 3286,
      "njm3o": 3287,
      "n9tar7": 3288,
      "n9ech": 3289,
      "n9ddem": 3290,
      "n9lle": 3291,
      "n9ssiw": 3292,
      "n9SS": 3293,
      "n9ddo": 3294,
      "n9essi": 3295,
      "sm3t": 3296,
      "smyt": 3297,
      "smitk": 3298,
      "ti99en": 3299,
      "tamarin": 3300,
      "tawaS": 3301,
      "ta8ia": 3302,
      "taarikh": 3303,
      "ta8owa": 3304,
      "taxi": 3305,
      "takhdhom": 3306,
      "##owro": 3307,
      "##owDo3": 3308,
      "##yya7": 3309,
      "##yyarat": 3310,
      "ghaykonou": 3311,
      "bS77a": 3312,
      "bS7abi": 3313,
      "bSe77a": 3314,
      "blaSa": 3315,
      "haka": 3316,
      "iddik": 3317,
      "iddina": 3318,
      "ll8a": 3319,
      "llkla": 3320,
      "llwe9t": 3321,
      "llkher": 3322,
      "ll7m": 3323,
      "llmo": 3324,
      "llfrran": 3325,
      "llwan": 3326,
      "llkhrin": 3327,
      "tahia": 3328,
      "tahoma": 3329,
      "##rbna": 3330,
      "##rbek": 3331,
      "##arti": 3332,
      "##ofoula": 3333,
      "##yyrat": 3334,
      "##yydo": 3335,
      "##refch": 3336,
      "3adia": 3337,
      "3adil": 3338,
      "SSe7": 3339,
      "SSout": 3340,
      "SSba7": 3341,
      "SSda3": 3342,
      "SSber": 3343,
      "dissir": 3344,
      "dikor": 3345,
      "fink": 3346,
      "finmma": 3347,
      "momtaz": 3348,
      "##lou3": 3349,
      "##loub": 3350,
      "##louch": 3351,
      "khddama": 3352,
      "kay3elle9": 3353,
      "kay3iyyeT": 3354,
      "kay3jbhoum": 3355,
      "kat3rfo": 3356,
      "kat3jbni": 3357,
      "kat3yyeT": 3358,
      "kat3Tini": 3359,
      "kat3atbni": 3360,
      "kat3rfi": 3361,
      "flmyya": 3362,
      "flmada9": 3363,
      "flmjerr": 3364,
      "annhom": 3365,
      "annho": 3366,
      "TTrf": 3367,
      "TTri9": 3368,
      "TTbib": 3369,
      "TTayaran": 3370,
      "TTwal": 3371,
      "TTyyarat": 3372,
      "TTofoula": 3373,
      "frask": 3374,
      "fras8a": 3375,
      "fchkeel": 3376,
      "fchkarti": 3377,
      "jayya": 3378,
      "jayyin": 3379,
      "lyouma": 3380,
      "lyoum": 3381,
      "lay3awn": 3382,
      "laykhlli": 3383,
      "layskher": 3384,
      "lwa7i": 3385,
      "mkllef": 3386,
      "mkelle": 3387,
      "mkellef": 3388,
      "mkalmi": 3389,
      "mkllkha": 3390,
      "nkhbbi": 3391,
      "nkherrej": 3392,
      "nkhllS": 3393,
      "nchoufhoum": 3394,
      "tsenna": 3395,
      "tsedd": 3396,
      "tsowwel": 3397,
      "tswwl": 3398,
      "tsrkila": 3399,
      "tsnnaw": 3400,
      "tsennana": 3401,
      "tkhrj": 3402,
      "tkhrbi": 3403,
      "tkhser": 3404,
      "##ezt": 3405,
      "##DDel": 3406,
      "##DDrna": 3407,
      "##7atan": 3408,
      "mamgadd": 3409,
      "mamti99en": 3410,
      "khayf": 3411,
      "khayba": 3412,
      "khayfa": 3413,
      "khaybat": 3414,
      "ndiroh": 3415,
      "2000": 3416,
      "bogo": 3417,
      "boton": 3418,
      "ddwa": 3419,
      "ddwira": 3420,
      "ddekhla": 3421,
      "ddrari": 3422,
      "dders": 3423,
      "ddemm": 3424,
      "ljow": 3425,
      "ljjrda": 3426,
      "l3ali": 3427,
      "l3amma": 3428,
      "l3aTif": 3429,
      "l3ala9at": 3430,
      "lbab": 3431,
      "lbare7": 3432,
      "lbarba": 3433,
      "llo3ba": 3434,
      "mjhh": 3435,
      "mjowwej": 3436,
      "n3yyeT": 3437,
      "n3Tiw": 3438,
      "n3tiw": 3439,
      "n3omo": 3440,
      "ngolo": 3441,
      "ngueddo": 3442,
      "ngalza": 3443,
      "onti": 3444,
      "onta": 3445,
      "onbda": 3446,
      "onl3b": 3447,
      "on7ta": 3448,
      "onsttfo": 3449,
      "rri7a": 3450,
      "t7reg": 3451,
      "t7ssen": 3452,
      "t7tarm": 3453,
      "tatkon": 3454,
      "tatban": 3455,
      "tathder": 3456,
      "tatgoul": 3457,
      "tat3j": 3458,
      "tatghbr": 3459,
      "##Dari": 3460,
      "##7i7": 3461,
      "##rou9": 3462,
      "##oSan": 3463,
      "##brha": 3464,
      "maf8m": 3465,
      "mafih": 3466,
      "mafrassi": 3467,
      "mabadi2": 3468,
      "mab9itch": 3469,
      "mabaynach": 3470,
      "##tar7ha": 3471,
      "khessna": 3472,
      "khessni": 3473,
      "khesshom": 3474,
      "lmouchkil": 3475,
      "lmousi9a": 3476,
      "ma3rftich": 3477,
      "ma3rftihach": 3478,
      "blmowDo3": 3479,
      "ktrt": 3480,
      "bSS7": 3481,
      "lwalidin": 3482,
      "bsbas": 3483,
      "bso8": 3484,
      "bslama": 3485,
      "dobb": 3486,
      "it7rg": 3487,
      "ittiSalat": 3488,
      "itniw": 3489,
      "n7ell": 3490,
      "n7Der": 3491,
      "n7tafl": 3492,
      "n7ello": 3493,
      "n7yydo": 3494,
      "nsini": 3495,
      "nsrbi": 3496,
      "nswwl": 3497,
      "nswwlo": 3498,
      "nsowwlo": 3499,
      "nachTa": 3500,
      "tfji": 3501,
      "tfrti": 3502,
      "tfDDel": 3503,
      "w9ef": 3504,
      "w9e3": 3505,
      "w9itt": 3506,
      "zzmer": 3507,
      "zzbel": 3508,
      "zzayda": 3509,
      "##echcha": 3510,
      "##rreDni": 3511,
      "kan3ref": 3512,
      "kan3tader": 3513,
      "kan39el": 3514,
      "khdra": 3515,
      "##waSer": 3516,
      "lblasa": 3517,
      "lblabla": 3518,
      "baskit": 3519,
      "matanDennch": 3520,
      "matant7": 3521,
      "matanfhem": 3522,
      "matandirch": 3523,
      "matan7essch": 3524,
      "3arfha": 3525,
      "##yyebt": 3526,
      "llown": 3527,
      "llowla": 3528,
      "llowel": 3529,
      "3chr": 3530,
      "3chrani": 3531,
      "3alam": 3532,
      "aji": 3533,
      "ajyal": 3534,
      "a8lan": 3535,
      "brask": 3536,
      "bra8ch": 3537,
      "bdit": 3538,
      "chadd": 3539,
      "chakhS": 3540,
      "chaghlak": 3541,
      "chari3": 3542,
      "fotha": 3543,
      "ikhelli": 3544,
      "ikhlle": 3545,
      "ikhlf": 3546,
      "ikhTTik": 3547,
      "jab": 3548,
      "jaw": 3549,
      "jawab": 3550,
      "kamlin": 3551,
      "l9awa3": 3552,
      "lghaba": 3553,
      "mtrdd": 3554,
      "misaj": 3555,
      "ndowwro": 3556,
      "ndowro": 3557,
      "nsali": 3558,
      "no9at": 3559,
      "nchofk": 3560,
      "nchofo": 3561,
      "rjal": 3562,
      "rj3at": 3563,
      "rj3t": 3564,
      "rjlih": 3565,
      "sima": 3566,
      "si7ria": 3567,
      "siyasia": 3568,
      "siftt": 3569,
      "sac": 3570,
      "sabab": 3571,
      "sa8la": 3572,
      "sa8lan": 3573,
      "tneDD": 3574,
      "tn3s": 3575,
      "tnguer": 3576,
      "tn99i": 3577,
      "tji": 3578,
      "tjib": 3579,
      "tjriba": 3580,
      "tjowwjo": 3581,
      "tchr7": 3582,
      "tchedd": 3583,
      "tchre7": 3584,
      "tchyaTa": 3585,
      "##gfo": 3586,
      "magahnTyyeb": 3587,
      "machakil": 3588,
      "macha3ir": 3589,
      "##elliw": 3590,
      "katghir": 3591,
      "katghowwet": 3592,
      "katsta799": 3593,
      "ghadya": 3594,
      "mnnhom": 3595,
      "mnnkom": 3596,
      "##rebo": 3597,
      "tlfakher": 3598,
      "matatsme3": 3599,
      "matatfkkerch": 3600,
      "matatkmi": 3601,
      "matatchreb": 3602,
      "##karkom": 3603,
      "maymkench": 3604,
      "bo7dk": 3605,
      "bo7dna": 3606,
      "bo7dha": 3607,
      "bo7dek": 3608,
      "ljtima3i": 3609,
      "docteur": 3610,
      "##2ekkedch": 3611,
      "9a8wa": 3612,
      "9ariban": 3613,
      "9aT3in": 3614,
      "9Sedt": 3615,
      "SSaba7": 3616,
      "SSara7a": 3617,
      "SSa7i7": 3618,
      "Sara7atan": 3619,
      "SbbaTi": 3620,
      "SbbaTha": 3621,
      "awwel": 3622,
      "bddo": 3623,
      "bTari9a": 3624,
      "brra7a": 3625,
      "dayz": 3626,
      "dayra": 3627,
      "dayrin": 3628,
      "fa9aT": 3629,
      "fabor": 3630,
      "fakhour": 3631,
      "imreD": 3632,
      "igollik": 3633,
      "klyan": 3634,
      "laho3l": 3635,
      "lghda": 3636,
      "lghwat": 3637,
      "lghoroub": 3638,
      "llekhra": 3639,
      "msdou": 3640,
      "ms2alat": 3641,
      "msllekni": 3642,
      "mwDou3": 3643,
      "mchit": 3644,
      "mchina": 3645,
      "mchiti": 3646,
      "mkhtal": 3647,
      "mkhbbyin": 3648,
      "mkhlou3": 3649,
      "mllit": 3650,
      "miladi": 3651,
      "no9aT": 3652,
      "noslo": 3653,
      "nogfo": 3654,
      "nSift": 3655,
      "nSoug": 3656,
      "nSelliw": 3657,
      "nwrrko": 3658,
      "nchedd": 3659,
      "nchche": 3660,
      "nch3el": 3661,
      "nrje3": 3662,
      "ostada": 3663,
      "rrajl": 3664,
      "rrab7": 3665,
      "rra9m": 3666,
      "skhon": 3667,
      "t9riban": 3668,
      "t9TTe3": 3669,
      "t9tar7ha": 3670,
      "tgadd": 3671,
      "tgles": 3672,
      "tgyyebt": 3673,
      "wikhlli": 3674,
      "##mrek": 3675,
      "##dolah": 3676,
      "wa3ra": 3677,
      "wa3er": 3678,
      "wa3rin": 3679,
      "waylii": 3680,
      "maghriba": 3681,
      "maghayt": 3682,
      "maghaDerr": 3683,
      "maghadich": 3684,
      "hadikch": 3685,
      "##barek": 3686,
      "khms": 3687,
      "katmrrDni": 3688,
      "katmechcha": 3689,
      "katmrreDni": 3690,
      "dazt": 3691,
      "ghanmchiw": 3692,
      "tlkhtya": 3693,
      "lms2ala": 3694,
      "tant3ell": 3695,
      "##7eTTo": 3696,
      "ssi7ria": 3697,
      "ma3mmrni": 3698,
      "kidazt": 3699,
      "bghitini": 3700,
      "jjayya": 3701,
      "jjayyin": 3702,
      "ghat3TTlna": 3703,
      "mbrrdin": 3704,
      "mberrerin": 3705,
      "drtiha": 3706,
      "njibo": 3707,
      "SSogan": 3708,
      "mamzyaninch": 3709,
      "mafhemtich": 3710,
      "mabghit": 3711,
      "mabghitch": 3712,
      "mabghitich": 3713,
      "mitalia": 3714,
      "magltich": 3715,
      "fhmtek": 3716,
      "nbddlo": 3717,
      "sbrdiltek": 3718,
      "3Tawna": 3719,
      "3Tawni": 3720,
      "3jbek": 3721,
      "3jbatni": 3722,
      "7mra": 3723,
      "7m9a": 3724,
      "7aDD": 3725,
      "7awlt": 3726,
      "9dim": 3727,
      "9dima": 3728,
      "9derna": 3729,
      "9derti": 3730,
      "Hmmmm": 3731,
      "Laa": 3732,
      "Lay3awn": 3733,
      "Layesser": 3734,
      "Sgher": 3735,
      "Sghira": 3736,
      "S7i7": 3737,
      "S7i7a": 3738,
      "Thlla": 3739,
      "Thella": 3740,
      "bttisa3": 3741,
      "btkhbia": 3742,
      "brhouch": 3743,
      "brbboch": 3744,
      "bayn": 3745,
      "bayna": 3746,
      "bsse7": 3747,
      "bssalama": 3748,
      "bitina": 3749,
      "bttawtt": 3750,
      "dwwr": 3751,
      "dwwzti": 3752,
      "dowwezt": 3753,
      "fr9": 3754,
      "frran": 3755,
      "flila": 3756,
      "flidd": 3757,
      "fer9a": 3758,
      "fer9ti": 3759,
      "fahd": 3760,
      "fahem": 3761,
      "frit": 3762,
      "frigo": 3763,
      "fidlah": 3764,
      "fiddik": 3765,
      "fhemt": 3766,
      "fhemtek": 3767,
      "fo9itt": 3768,
      "fblaSa": 3769,
      "fblaStha": 3770,
      "gueddo": 3771,
      "guich": 3772,
      "gltiha": 3773,
      "iDrabat": 3774,
      "iDrbek": 3775,
      "is3d": 3776,
      "isti9bal": 3777,
      "jbt": 3778,
      "jbti": 3779,
      "jtima3i": 3780,
      "ktab": 3781,
      "ktabk": 3782,
      "m9ell9ek": 3783,
      "m9loub": 3784,
      "mghribi": 3785,
      "mghbribi": 3786,
      "nDreb": 3787,
      "nDrbo": 3788,
      "ngolha": 3789,
      "ngollik": 3790,
      "nsifthom": 3791,
      "regim": 3792,
      "restora": 3793,
      "rrouj": 3794,
      "rrouz": 3795,
      "sinyal": 3796,
      "sinjab": 3797,
      "saraha": 3798,
      "sara7a": 3799,
      "thezz": 3800,
      "thDer": 3801,
      "tossel": 3802,
      "toDDrna": 3803,
      "tSn3at": 3804,
      "tSennet": 3805,
      "trj3": 3806,
      "trje3": 3807,
      "tchofni": 3808,
      "tzidni": 3809,
      "tzid8a": 3810,
      "wgfna": 3811,
      "wgfat": 3812,
      "##799o": 3813,
      "##kounch": 3814,
      "##age": 3815,
      "##bous": 3816,
      "##ji8at": 3817,
      "##jj3ou": 3818,
      "##yati": 3819,
      "##yathom": 3820,
      "##zTk": 3821,
      "##8mek": 3822,
      "##8lach": 3823,
      "##cheT": 3824,
      "maTicha": 3825,
      "maTl3atch": 3826,
      "mamt2kk": 3827,
      "mamt2ekkedch": 3828,
      "mal9it": 3829,
      "mal9itch": 3830,
      "makhddamch": 3831,
      "makhddamach": 3832,
      "ch8er": 3833,
      "ch8oura": 3834,
      "chfto": 3835,
      "##erfeS": 3836,
      "kaychrb": 3837,
      "kaychjj3ou": 3838,
      "darija": 3839,
      "ghalTa": 3840,
      "ghal9aw": 3841,
      "makntch": 3842,
      "makntich": 3843,
      "makattsa": 3844,
      "makat9elle9": 3845,
      "makltna": 3846,
      "makltek": 3847,
      "ghantwaSl": 3848,
      "ghantkka": 3849,
      "ghanchoufo": 3850,
      "ghangollik": 3851,
      "ghangollihom": 3852,
      "tl3eb": 3853,
      "tl3waSer": 3854,
      "tlmakla": 3855,
      "lbrd": 3856,
      "lbrhouch": 3857,
      "lblays": 3858,
      "lblayS": 3859,
      "nttaSel": 3860,
      "ntta8mek": 3861,
      "ntfadaw": 3862,
      "ghayjina": 3863,
      "ghayjrri": 3864,
      "makan3ref": 3865,
      "makan3rfoch": 3866,
      "makan7mlch": 3867,
      "makan7melch": 3868,
      "kantmnna": 3869,
      "kantmchaw": 3870,
      "kantsnnaw": 3871,
      "khassna": 3872,
      "khassni": 3873,
      "lmohimm": 3874,
      "chefthoum": 3875,
      "3awd": 3876,
      "3awtani": 3877,
      "Tajin": 3878,
      "Tajine": 3879,
      "##rrkoch": 3880,
      "ma3ndkch": 3881,
      "ma3ndhach": 3882,
      "lkhDr": 3883,
      "lkhDra": 3884,
      "mbloki": 3885,
      "mblokyin": 3886,
      "l7iT": 3887,
      "l7iSSa": 3888,
      "lfrchiTa": 3889,
      "lfrmaj": 3890,
      "ra2i3": 3891,
      "ra2i3a": 3892,
      "t3TTlt": 3893,
      "t3TTlti": 3894,
      "tb3ni": 3895,
      "tb33ed": 3896,
      "njerrbo": 3897,
      "njerrebo": 3898,
      "n9rah": 3899,
      "mkta2b": 3900,
      "mkta2eb": 3901,
      "tkhellina": 3902,
      "ittija8": 3903,
      "ittija8at": 3904,
      "khdmtk": 3905,
      "ajwiba": 3906,
      "ajwibtek": 3907,
      "jihti": 3908,
      "jihtek": 3909,
      "ndwwro": 3910,
      "ndwwez": 3911,
      "mwellefha": 3912,
      "miladk": 3913,
      "wij8at": 3914,
      "wijhat": 3915,
      "maghanTyy": 3916,
      "maghankounch": 3917,
      "ghat3jbk": 3918,
      "ghat3jbkom": 3919,
      "nbddelha": 3920,
      "2etter": 3921,
      "2ettro": 3922,
      "3aychin": 3923,
      "Tobisat": 3924,
      "bjojna": 3925,
      "bghatna": 3926,
      "bghat8a": 3927,
      "f3a2ilti": 3928,
      "f3a2iltkom": 3929,
      "##zadnich": 3930,
      "2aman": 3931,
      "3oDw": 3932,
      "3yit": 3933,
      "39lti": 3934,
      "3Titini": 3935,
      "3inik": 3936,
      "3erref": 3937,
      "3wwlti": 3938,
      "3lliser": 3939,
      "3adaad": 3940,
      "3omar": 3941,
      "3TTelt": 3942,
      "3regt": 3943,
      "7itach": 3944,
      "7tarem": 3945,
      "7erb": 3946,
      "7rfyyan": 3947,
      "7bibi": 3948,
      "7orr": 3949,
      "799e9t": 3950,
      "7lliti": 3951,
      "7chouma": 3952,
      "7ttal": 3953,
      "7rgto": 3954,
      "8adaf": 3955,
      "9ne3tini": 3956,
      "9hwa": 3957,
      "9wiyya": 3958,
      "9chchabto": 3959,
      "9atila": 3960,
      "9tar7ti": 3961,
      "Abderra": 3962,
      "Bojm3a": 3963,
      "Chourou9": 3964,
      "DDyaf": 3965,
      "D7kt": 3966,
      "Daroria": 3967,
      "Drief": 3968,
      "Faceb": 3969,
      "Fouad": 3970,
      "Goog": 3971,
      "Hamid": 3972,
      "Jmiaa": 3973,
      "Khalid": 3974,
      "Nabil": 3975,
      "Sf7at": 3976,
      "Soukaina": 3977,
      "Smka": 3978,
      "S7ablik": 3979,
      "Sadi9": 3980,
      "Sifto": 3981,
      "Twyyrat": 3982,
      "Tlila": 3983,
      "Talyania": 3984,
      "TbaSl": 3985,
      "Trofa": 3986,
      "Talabat": 3987,
      "Zagora": 3988,
      "afkarkom": 3989,
      "aatar": 3990,
      "asaasan": 3991,
      "asidi": 3992,
      "aamina": 3993,
      "byota": 3994,
      "b9ina": 3995,
      "bnadm": 3996,
      "binma": 3997,
      "batatan": 3998,
      "btari9a": 3999,
      "berbbouch": 4000,
      "bnisba": 4001,
      "bkoll": 4002,
      "bakia": 4003,
      "bimowat": 4004,
      "balak": 4005,
      "bsiT": 4006,
      "boj3ran": 4007,
      "brrad": 4008,
      "bhadchi": 4009,
      "brnamaj": 4010,
      "bou3wid": 4011,
      "cockta": 4012,
      "compte": 4013,
      "carte": 4014,
      "cinema": 4015,
      "dfel": 4016,
      "datay": 4017,
      "dert": 4018,
      "dowezt": 4019,
      "douchat": 4020,
      "email": 4021,
      "f3mrek": 4022,
      "f7yati": 4023,
      "fdmagh": 4024,
      "f9ra": 4025,
      "fTri9": 4026,
      "fchmch": 4027,
      "flakhor": 4028,
      "fnaDari": 4029,
      "fkhbarek": 4030,
      "fdak": 4031,
      "f7alna": 4032,
      "francais": 4033,
      "fTTri9": 4034,
      "galsin": 4035,
      "gddach": 4036,
      "garro": 4037,
      "gddit": 4038,
      "hdrt": 4039,
      "hamdolah": 4040,
      "hhhh": 4041,
      "hdert": 4042,
      "inta9d": 4043,
      "i3mmrha": 4044,
      "i7sas": 4045,
      "ijerro": 4046,
      "izyyen": 4047,
      "ina9ch": 4048,
      "ijabia": 4049,
      "ir7m": 4050,
      "i3awenna": 4051,
      "irddo": 4052,
      "janibia": 4053,
      "j3lek": 4054,
      "jara2id": 4055,
      "jrreb": 4056,
      "joz2": 4057,
      "kmlat": 4058,
      "kabous": 4059,
      "koadowat": 4060,
      "klitha": 4061,
      "komik": 4062,
      "kilomet": 4063,
      "ka3oumou": 4064,
      "kaddouwez": 4065,
      "kfast": 4066,
      "lsticha": 4067,
      "lhla": 4068,
      "lokhra": 4069,
      "l8na": 4070,
      "lprogram": 4071,
      "lhaja": 4072,
      "lkora": 4073,
      "lhdra": 4074,
      "limen": 4075,
      "lbiban": 4076,
      "la3bin": 4077,
      "ll3iba": 4078,
      "lkamy": 4079,
      "llte7t": 4080,
      "lgolf": 4081,
      "lowla": 4082,
      "l8Dra": 4083,
      "loTilat": 4084,
      "lkarTa": 4085,
      "lkhddama": 4086,
      "mDalla": 4087,
      "mf99ess": 4088,
      "mchbbek": 4089,
      "madrbna": 4090,
      "mnimta": 4091,
      "mriD": 4092,
      "m7eddeda": 4093,
      "mstressyin": 4094,
      "message": 4095,
      "msta3dda": 4096,
      "nkmmel": 4097,
      "nmra": 4098,
      "nhari": 4099,
      "n3amas": 4100,
      "nba8rt": 4101,
      "nssa3a": 4102,
      "nni8aya": 4103,
      "nghowwet": 4104,
      "n7ebb": 4105,
      "nefs": 4106,
      "nokta": 4107,
      "na3s": 4108,
      "n99ez": 4109,
      "nr7l": 4110,
      "nl9ah": 4111,
      "olkhDer": 4112,
      "ot3r": 4113,
      "omor": 4114,
      "oustad": 4115,
      "o9tmma": 4116,
      "otchri": 4117,
      "omour": 4118,
      "olbyeD": 4119,
      "pizza": 4120,
      "plakar": 4121,
      "pchaakh": 4122,
      "piscine": 4123,
      "ri7t": 4124,
      "rf9a": 4125,
      "rb3a": 4126,
      "rddoni": 4127,
      "rebbi": 4128,
      "rrbe7": 4129,
      "routine": 4130,
      "rdditih": 4131,
      "stmt3ti": 4132,
      "secre": 4133,
      "soyya7": 4134,
      "sou2al": 4135,
      "stid3a2": 4136,
      "sahbi": 4137,
      "swwelti": 4138,
      "sbbni": 4139,
      "srbay": 4140,
      "sbbaTk": 4141,
      "tkerfeS": 4142,
      "t8ellaw": 4143,
      "twji8at": 4144,
      "t2khir": 4145,
      "tlata": 4146,
      "tliddin": 4147,
      "tenis": 4148,
      "tdd9ay9": 4149,
      "tit9asm": 4150,
      "t7ett": 4151,
      "trowwenti": 4152,
      "transport": 4153,
      "tajarib": 4154,
      "tnoDi": 4155,
      "t8Dri": 4156,
      "tyy9ha": 4157,
      "t7e99e9": 4158,
      "twaSelt": 4159,
      "tD7ek": 4160,
      "tomobila": 4161,
      "tokkelhom": 4162,
      "vilaj": 4163,
      "whda": 4164,
      "wgef": 4165,
      "wit7eTTo": 4166,
      "wellbar7": 4167,
      "wrrekt": 4168,
      "wjjedti": 4169,
      "yojdo": 4170,
      "yyamek": 4171,
      "yyamatk": 4172,
      "z3mi": 4173,
      "zaydoun": 4174,
      "##minha": 4175,
      "##me7ch": 4176,
      "walidik": 4177,
      "waD7in": 4178,
      "waa9i3i": 4179,
      "mamak": 4180,
      "ma3arefch": 4181,
      "mawa9i3": 4182,
      "masa8lach": 4183,
      "mabitich": 4184,
      "ma9dertch": 4185,
      "malay9in": 4186,
      "ma7llito": 4187,
      "mardditch": 4188,
      "mahzzitch": 4189,
      "maz3emtch": 4190,
      "ma9addch": 4191,
      "mahazzch": 4192,
      "chrif": 4193,
      "chrjem": 4194,
      "chklaT": 4195,
      "chkhSyyan": 4196,
      "##taire": 4197,
      "kanfi9": 4198,
      "kandouwwzo": 4199,
      "kanDyy3o": 4200,
      "khddmna": 4201,
      "khl3kom": 4202,
      "khoSoSan": 4203,
      "khbark": 4204,
      "khddemnah": 4205,
      "kay7emm9o": 4206,
      "kay9tel": 4207,
      "kay3awen": 4208,
      "kaysta799o": 4209,
      "kaybbalik": 4210,
      "kays7ablihoum": 4211,
      "kayTll3oha": 4212,
      "kat3awdi": 4213,
      "katnchcheT": 4214,
      "katfDDlo": 4215,
      "katn3es": 4216,
      "katfekker": 4217,
      "darouri": 4218,
      "ghabiyya": 4219,
      "ghaaliban": 4220,
      "ghatchoufk": 4221,
      "ghleTT": 4222,
      "ghechchit": 4223,
      "ghykhssna": 4224,
      "mnDDminha": 4225,
      "achnahia": 4226,
      "3nne9ni": 4227,
      "flkharj": 4228,
      "fl7iT": 4229,
      "flblaSa": 4230,
      "flwer9a": 4231,
      "flpartma": 4232,
      "ghankono": 4233,
      "ghanrje3": 4234,
      "ghanstemt3o": 4235,
      "ghan3tabrha": 4236,
      "ghanakhdo": 4237,
      "ghan8bTo": 4238,
      "ghanghTTiw": 4239,
      "tl7iSaS": 4240,
      "tl7oDor": 4241,
      "tlmdrasa": 4242,
      "tlberd": 4243,
      "tl2ajyal": 4244,
      "lmaydan": 4245,
      "lm3rouDin": 4246,
      "mo7rij": 4247,
      "mo8imm": 4248,
      "monasiba": 4249,
      "tankhafo": 4250,
      "tansm3o": 4251,
      "tan8Dr": 4252,
      "tanbrzTk": 4253,
      "tanD7ko": 4254,
      "tanbkiw": 4255,
      "tan7bb8om": 4256,
      "ssokkan": 4257,
      "sswaye3": 4258,
      "ssbou3a": 4259,
      "ma3reftch": 4260,
      "ma3dnach": 4261,
      "ma3adyyach": 4262,
      "ttaf9na": 4263,
      "ttahowwa": 4264,
      "lb3Diyathom": 4265,
      "lbolis": 4266,
      "lbTTaT": 4267,
      "ntsrkel": 4268,
      "ntmechaw": 4269,
      "nt3eTTel": 4270,
      "ntS7ni": 4271,
      "ntkalma": 4272,
      "nt8dden": 4273,
      "ntw993o": 4274,
      "ntkheyyel": 4275,
      "ntgheddaw": 4276,
      "ghaybdaw": 4277,
      "ghay7ello": 4278,
      "ghay3Tina": 4279,
      "ghaykhssek": 4280,
      "ghayjawbna": 4281,
      "ghaytghlaw": 4282,
      "blma3icha": 4283,
      "blkheff": 4284,
      "taykhllini": 4285,
      "tay7awlo": 4286,
      "tay7sso": 4287,
      "kikhdmti": 4288,
      "makanloumekch": 4289,
      "makan9chbl": 4290,
      "makannS7ekch": 4291,
      "makanf8emch": 4292,
      "makankhllsekch": 4293,
      "babbaghawat": 4294,
      "m3owwja": 4295,
      "matgolch": 4296,
      "mat7e99e9ch": 4297,
      "matreddedch": 4298,
      "matsifthomch": 4299,
      "mat7tajch": 4300,
      "makay7emlouch": 4301,
      "makayl3bouch": 4302,
      "jjdoura": 4303,
      "ghatwerrini": 4304,
      "ghatwllefha": 4305,
      "lmostawa": 4306,
      "lmoD7ika": 4307,
      "lmosa3ada": 4308,
      "lmofDDal": 4309,
      "lmola7aDat": 4310,
      "lmo3adalat": 4311,
      "l9ayloula": 4312,
      "lma9adir": 4313,
      "tt3Tal": 4314,
      "tterjama": 4315,
      "l3odr": 4316,
      "lkouzina": 4317,
      "larb3": 4318,
      "laglas": 4319,
      "law3lm": 4320,
      "lapisin": 4321,
      "mbrzTin": 4322,
      "nne99zo": 4323,
      "nfekkro": 4324,
      "nffakhat": 4325,
      "nna9ch8a": 4326,
      "nnata2ij": 4327,
      "anchofk": 4328,
      "anglais": 4329,
      "awlawiat": 4330,
      "bisalam": 4331,
      "lframj": 4332,
      "mannsawch": 4333,
      "man3yye9": 4334,
      "t3yyet": 4335,
      "t3TTelti": 4336,
      "tberre3": 4337,
      "mayoram": 4338,
      "maymoutouch": 4339,
      "nj3lohom": 4340,
      "njm3oh": 4341,
      "n9echcher": 4342,
      "n9lleb": 4343,
      "n9SSro": 4344,
      "tawaSol": 4345,
      "taarikhia": 4346,
      "ll8awia": 4347,
      "llklab": 4348,
      "llmosi9a": 4349,
      "laykhllik": 4350,
      "lwa7ida": 4351,
      "mkellekh": 4352,
      "nkherrejhoum": 4353,
      "tswwlni": 4354,
      "tkhrbi9": 4355,
      "mamti99ench": 4356,
      "bogos": 4357,
      "l3aTifia": 4358,
      "mjhhed": 4359,
      "n3Tiwha": 4360,
      "onl3bo": 4361,
      "on7taflo": 4362,
      "tat3jebna": 4363,
      "maf8mtch": 4364,
      "bso8oula": 4365,
      "nsrbiw": 4366,
      "nswwlek": 4367,
      "tfjija": 4368,
      "tfrtit": 4369,
      "matant7rrkoch": 4370,
      "ikhlleS": 4371,
      "l9awa3id": 4372,
      "mtrdded": 4373,
      "tneDDem": 4374,
      "magahnTyyebch": 4375,
      "katsta799ha": 4376,
      "matatsme3ch": 4377,
      "matatkmich": 4378,
      "matatchrebch": 4379,
      "laho3lem": 4380,
      "msdoud": 4381,
      "mkhtalfin": 4382,
      "nSiftha": 4383,
      "nchcheTTini": 4384,
      "wikhlliwna": 4385,
      "maghaytzadnich": 4386,
      "maghaDerrch": 4387,
      "tlkhtyarat": 4388,
      "tant3ellem": 4389,
      "brbbochat": 4390,
      "bttawttor": 4391,
      "guichet": 4392,
      "regime": 4393,
      "mamt2kkedch": 4394,
      "kaychjj3ouk": 4395,
      "makattsame7ch": 4396,
      "ghayjrriw": 4397,
      "maghanTyyboch": 4398,
      "Abderrahim": 4399,
      "Facebook": 4400,
      "Google": 4401,
      "cocktail": 4402,
      "fdmaghk": 4403,
      "inta9doni": 4404,
      "ijerroh": 4405,
      "kilometre": 4406,
      "lstichara": 4407,
      "lkamyowat": 4408,
      "ot3rDi": 4409,
      "secretaire": 4410,
      "stid3a2at": 4411,
      "tkerfeSt": 4412,
      "tit9asmo": 4413
    }
  }
}